111110100000
000000001100
000000111000
000001110100
111111011011
000010001010
000001000101
000010111000
000011111001
000000101011
111100111010
000001010110
000000110000
111110010100
111111000101
000011011101
111100101100
111110010110
111101000110
000011010110
111101110111
111101110001
000010011000
000011110010
111101000011
111101010110
111110110001
111111011101
000001100011
000000111101
000010011101
111110001100
111101000001
111100001101
111100001010
000001101111
111100111110
000000111011
111111100001
000011101010
111100100011
000000101000
111111101011
111111101100
111100100001
111101110000
000001011011
111101001111
111110000101
000000101000
111100101000
111110001011
000011101010
000001011011
000000101000
111100100101
000010010011
000000010100
000000000111
111101010001
111111011000
000011110100
000011001010
000011100010
000000000000
000001001100
111110001011
000010100111
000010011100
000010111010
111100101010
111101110110
111111111001
000011101100
000001010100
000000010001
000011110001
111101001011
000001010011
111110101011
111110101001
111100000111
111100110101
111100001101
111110000000
111101001001
000010011001
111110011000
111101011101
111111111010
111100000111
000001111110
000001011011
000000000011
111101100001
111101010100
000011100101
111101001011
000000111111
111100111101
111111111011
000010110000
000001001100
000001111010
000010011000
111111101111
111100000111
111100101111
111110110010
000000101001
111100111010
111110110110
111100001110
111111100101
000001011001
111101000110
111101101100
000011010100
111110101101
000000000010
111100110110
111100011011
000000000110
111101111101
111101010101
111110110011
111110001100
111111111111
