000001011110
000011000110
111110111010
000000001111
000001001010
111110010011
111111110011
000010000000
000001101010
000011100111
111111100111
111101000010
111110001010
000010001010
111111100001
111111101101
000000101001
111100110011
111100111100
111101111110
111100100001
000011111011
111111110110
111110011010
000011110000
111100010001
111100100101
000011110001
111101100111
111111000111
111101011101
111111011011
000011111100
000000110110
111110111100
111100100010
000011011011
000001110100
111111111111
111111100000
111101110011
000010100101
111101100000
000010010100
111100101000
111111110111
111100111110
000001101001
000000010101
000000101101
000010000010
111101111100
000011100111
111111111100
000011101101
000011100111
000010000110
000010011111
000011101000
000001110000
111100100011
000000101010
000000001011
000010101000
000000111100
000011001110
000000110010
111100010100
000011011011
111100010000
000001011001
111101000001
111110010101
111100100010
000010000010
111100111101
000011011110
000001000010
111101011000
111110101101
000001010010
000010110011
000001010101
000001100011
000001100111
111110110001
111111000100
111100110010
000011111100
000010001111
111100101010
000001011000
000010000001
000000010111
111111000000
111111111100
111100010100
111100001101
000010000110
000001110110
000001110101
000000100111
000001011110
000011100000
111100010100
111100110010
000011010010
000000100100
111100010000
000000111000
000000001110
000011011011
111100001001
111101001011
111100010100
000100000000
000000110101
000010011010
111101111010
000001010101
111101000001
000001101011
000001000110
111101000101
000010111100
000011101111
111111101100
111110001111
