111101100110
000010001011
000010100011
000001100010
000011110010
000010011001
000000011100
000010110001
111111100010
111100100110
111111010100
111101001011
111111101101
111100111001
111101001000
111101110101
111110110001
000001101111
111110001010
000000110001
000010111001
111111000101
111100101101
000010001111
111111001100
111101111100
111101011101
111111100100
111100000011
000010011110
111110010010
111100001100
111101100111
111100101001
000000000101
000001100000
111100010101
000000101110
000000101101
111110000101
000001110110
111101111010
000001000101
111110001111
111110011010
000001111101
000010100100
111110011101
111100111011
111101000011
111101101100
000011110101
111100101110
111110111100
111100100010
111100010110
000001110101
111111111111
000010011101
000010101110
000011100100
000011100101
000001011001
000001010100
111101111100
000010110000
000010011011
000010000110
000000100000
000011101100
000011110010
111101100100
111100000000
111101011001
111100100000
000010100100
111111101111
111101010110
000000110101
111111000000
111111001011
111111011100
000001011100
000000101010
111110111011
111111001110
111100001011
111111000100
111101111001
111111010110
000010000000
111111010010
111110101010
111100011000
000011010100
111100000000
000001100010
000000110100
111111101110
111100111111
111110000101
000000111010
000000011000
000011000101
000000101011
111101010101
111100101010
000000100111
000011110111
111110101001
000001000111
000001001101
111111100000
000000101001
111101100101
000001000001
000001000110
000010111100
000010001110
111100011010
000011000000
111110100101
000000000101
000000100000
111100111110
111110000011
000011100111
000001111100
