111100100001
111110101001
111100111101
000011011001
000000100111
111111000000
111100000111
000001000010
000000111101
111111101001
000011111110
111111111100
000000000110
111101010111
000001010101
111110000001
111101001000
111100001010
000011111000
111100110111
111101110110
111111010110
111100101001
000001000100
111101101101
000000011111
111101110101
000011110000
111111111010
000000010111
000001101111
000000110000
000001010100
000001001000
000000001110
111111101100
000000101010
000001000110
000000011111
111111101011
111111101110
111111101110
000000011111
111100010001
000011001110
111111110010
000000110101
000011010101
000011111000
000011100011
111110010111
000000000010
111100000010
111100001000
111100011110
000011110110
111100111101
111101101010
111100101000
000001101001
000010000000
111101101000
000011011110
111110011111
111101111110
000010110110
111101010111
111100010000
000010000011
111110001110
111110100111
111110111001
111111101011
000010001100
111111100101
111100000110
000010100110
000011101011
000000111111
111101110011
111100101010
000001000000
000001010011
000001011101
111110111000
111101101011
111111100001
000000100110
111111110011
000000011011
111101111110
000010010000
000010011011
000011100010
000001110011
000000011100
000001001011
000010011010
000011101100
000001010100
000000100001
000010101101
111100110011
111101000100
000001100111
111101011100
111100101101
111110000110
000001011011
111111100101
000001100010
000010100111
111101100000
000011010100
000001010000
000000110001
000010100010
111110111000
111101111111
000011101100
000010010100
111111000001
000000010100
111100111100
000000011100
000010000110
000000010100
111100001110
