000001101011
111110100111
111100100111
000001110101
111101010010
111100110010
111110001011
000000100111
111100101111
111100111101
000001110100
000000111110
000001100001
000000100100
000001011101
000010010100
111100111010
111100100010
111111000010
000001111010
111111111011
000001000001
111101001111
111100001111
000011111111
000000101010
000010100001
000000101111
000010111101
000001010001
000010001000
000011001101
000000010100
111111100101
000001001101
000000011001
111100110010
000001110101
111101001100
000010010010
111111111010
000000010111
000011111000
000001111111
000011010010
111111011111
111110110001
111101001001
111111101000
111111001110
000011001001
000000000000
111100100000
000001010001
111110010110
111100100000
000001110000
111101011010
111110011100
000010011101
111100011011
000011100111
000000111010
111110010110
000000111001
000011001011
111111101110
000001010010
111100010101
000001001100
111100100000
111111101011
000011110001
000011010010
000011101101
000010101001
111100011011
000010101011
111110100111
111100010100
111100011101
000011111100
000000100111
000000100010
111100011101
111111001101
000010010001
111101011111
000000011100
000000011001
000011100010
000011111110
111111000001
000001110001
000001001100
000011111010
000010111000
000011000110
000000011000
000010000000
111111011100
111110110010
000011101111
111101110100
111101011100
000011000001
000011001010
111111111111
000000001101
000011101001
111111101110
000001000111
111111101011
000001000010
000011010000
111110011111
111111010101
000000101100
111101010100
000010011111
111110000010
000010101010
000011100011
000010101100
111100011010
111101101110
000010011110
000001011001
