111111100001
111111110010
000011110010
111101111100
111101011011
000000101111
111100110010
000010011101
111100101010
000011001000
111101000010
111101001110
111111000001
111101100000
111111000001
000011100101
000001000100
111101111101
000000100111
000010100011
111110100001
111101110111
000000101111
000001101011
111101011111
111100101000
111100010000
111111101000
000001011001
111111100110
000000001101
000001101111
000011011011
000010001000
111111010100
000000001001
111101110011
000011111100
111100100111
000001110110
111110000000
111111000011
000010110111
000001010100
111101111011
111101100100
111111010111
000001100000
111101001111
111111000000
000010001010
000001101110
000001101000
111111001111
111100100111
000011111101
111110111110
000010101100
111100010110
000010111010
000000001010
111110000010
111100100011
000010010100
000000011101
111101101000
000001001111
000001010101
000011011100
111111011001
111100100000
111101100101
111101101010
111100001010
000000101000
000011110110
000001011110
111111001110
111111010110
000010111110
000000101000
111100010111
000000011101
000001100111
111110101010
000010011011
111101101111
111100010111
111101111011
000000100001
111100101101
000001110101
000010100000
000011110100
000000111110
111110101001
111110001100
000001100001
000010100000
000010001010
000011011000
111100111101
000011011101
111110001101
111110111101
000001110001
111100000011
000010111010
000010110000
000011010101
111111101111
000001001000
111100011001
000001001011
111111101001
111101101100
000001000011
111111100111
111110010000
000010100101
000010111100
111100001011
000010011011
111101001011
000011001010
111111101000
111110010011
000000100001
