memory_initialization_radix=2;
memory_initialization_vector=
000001111111,
000010011100,
000000000001,
000010010110,
000011000111,
000010101000,
000010000111,
000011010011,
000011110110,
000001010000,
000011001100,
000001001001,
000000000100,
000000011000,
000001010100,
000001001110,
000000000101,
000000101010,
000001110010,
000011000100,
000010101110,
000010110111,
000001110110,
000011101011,
000011111101,
000011101111,
000001110110,
000011101000,
000001100011,
000010011010,
000010001111,
000011011001,
000001001001,
000010101010,
000010011010,
000010101000,
000001001111,
000001010101,
000000110000,
000000011010,
000001001001,
000001011011,
000010001001,
000011111110,
000000000111,
000010110110,
000011101000,
000011011110,
000000011111,
000011110101;
