memory_initialization_radix=2;
memory_initialization_vector=
000011010100,
111101010011,
000000001111,
000011100100,
000000010001,
111101110111,
111100100101,
000000010100,
111111110001,
111111011001,
111110001000,
000001101000,
000001100101,
000001000101,
111111100100,
111110101010,
111100111001,
111110001000,
111111001011,
000000001000,
111101110011,
111100001001,
000010110000,
000011011111,
111110110101,
000001101110,
000010011111,
111101111110,
000000010000,
000000111100,
111111011100,
000011010001,
111110000011,
000011110001,
111100011111,
000000101111,
000011000011,
000011101101,
111111010110,
000010011111,
111101000010,
111100110110,
000001110001,
000000101001,
000001100100,
000010100101,
000001111000,
111101100101,
000010100100,
111111111010,
111110011001,
000001101100,
111110100101,
111111100011,
000001010001,
000010100011,
111111000111,
111101101101,
111100101011,
111110000001,
000001110000,
111101111011,
000000101000,
000011111100,
000010101001,
111110111000,
000001110011,
000000101001,
000000000100,
111110100100,
111110110110,
000001110101,
000001111101,
000001100111,
111110111110,
111101011000,
000000110011,
000000100101,
000001010010,
000010101011,
000000101001,
000000100011,
111111010010,
000001010101,
111111000000,
111111111111,
000011001010,
111101011100,
000000000111,
111111100011,
000010011010,
111111111111,
000010011001,
000011000011,
000011010010,
000001100101,
000000010000,
000000001011,
111100101111,
111100101110,
000001001111,
111111000011,
111100001111,
111110011001,
111101000101,
111100000011,
111110111001,
000010111110,
000010011001,
111110010100,
111101001110,
111111110100,
111100011111,
111110100010,
000010011100,
000011000011,
000010110110,
000001110101,
000010000100,
111100111110,
000010111000,
111100110110,
111100111101,
000010110111,
000011011011,
111101100010,
000001110011,
111100100001;
