memory_initialization_radix=2;
memory_initialization_vector=
111111011000,
000000011000,
000000010100,
000011100010,
111101110100,
111110101100,
111111011101,
111111101100,
000000010000,
111101100010,
111101110000,
000010011110,
111111111111,
000000100001,
111111101110,
111100111000,
111110111100,
000010001100,
000001011111,
111111001100,
111101011011,
000011100001,
111101011011,
000000111101,
111100101011,
000010010100,
000000011110,
111101000101,
000001100100,
000011111001,
111100000001,
111111001111,
000000101010,
000011010010,
000000100100,
000010110110,
000011001100,
111111011110,
111111101010,
111100011010,
111100011000,
000010110011,
111100010010,
000010111111,
000000001010,
111110011110,
111110010101,
111110010001,
000010101110,
111101110000,
111100001100,
000001110011,
111110000011,
000011100101,
111101101000,
111100100011,
000001111101,
000000111000,
000011010000,
000000100001,
111111101110,
000001001000,
000010110000,
111100001110,
000001111010,
000010001001,
000011110100,
111110110101,
000000110111,
000001011110,
111101110100,
000000000000,
111101101011,
000011001111,
111101011011,
000011111010,
000000011110,
000010011110,
000010111001,
111111111011,
111100110110,
111111110011,
111101010101,
111101000100,
000000110100,
111111100110,
111111010111,
111110100100,
000001011011,
000010011101,
111110100010,
111111111011,
111101001111,
000011011010,
111101111000,
111100000111,
000011000010,
000001000000,
111100100000,
000001001011,
000001001101,
111110000011,
000001000111,
000010001000,
111101000100,
000000011000,
111101001111,
111101000111,
000011011100,
111101100001,
000010100111,
111101011000,
111100011111,
111110001101,
111101000100,
111101010011,
111101100011,
000000111110,
000001010011,
000001011111,
111110110010,
111100011101,
000010111010,
111100010100,
111110011011,
111110101010,
111110011101,
000001100011;
