memory_initialization_radix=2;
memory_initialization_vector=
000001101001,
111110110100,
111111011101,
000000011000,
000000110001,
111100010000,
111110010101,
111110000001,
000000001001,
000001001100,
000001100100,
000000000111,
000010001010,
000001111010,
000011010011,
000001100011,
111111111000,
111100110010,
111101000000,
000010000001,
000001000001,
111111010011,
111110100000,
111110010000,
000011011100,
000011100011,
111110001101,
000011111110,
111100111000,
000011100010,
111100100011,
111101100001,
111101100011,
000000001111,
000001101100,
000011101110,
111100110000,
111100111001,
111101001010,
000001111111,
000011011101,
000000111101,
000011001000,
000010000001,
000010101001,
111110101110,
111110000000,
111111001111,
111101010000,
000010001011,
000001000001,
000010100001,
111100010010,
000011110100,
111101000100,
111100100111,
000011111111,
000011100111,
000010010111,
111100101111,
111101101001,
111111000000,
000001101100,
111100000011,
111100111110,
000000001011,
111101111000,
000000110010,
000001101101,
111101101101,
111100110000,
111111001111,
000001000100,
000000010110,
000000011001,
111100111101,
000001101100,
111111110011,
111110001011,
000010011111,
111100010000,
111110101010,
111111101100,
000011000100,
111100001100,
000011101110,
000000010010,
111110011101,
000011010011,
111110000110,
111100011111,
111111001011,
111111011101,
000000001100,
000011000111,
111110101011,
111110011010,
000001110101,
111100110110,
111101100100,
111101010000,
000010000100,
000010010010,
000010001001,
111100110010,
111101010000,
111111101100,
111101000110,
111111101000,
111110000011,
111111001110,
000001000001,
000001011100,
111100110000,
111111000100,
111100100011,
000000001101,
000000010011,
111111100110,
111110111011,
111111010101,
000011101001,
000010100000,
000010110010,
000010000111,
111110111100,
000000110010,
111101000010;
