memory_initialization_radix=2;
memory_initialization_vector=
000001001011,
111111110000,
111100111111,
000000000110,
000000101000,
000001101101,
000011100011,
111110100000,
111100000011,
000010101010,
111111100011,
111111111101,
111101100011,
000001001100,
111101100101,
111100101101,
000010000100,
111110100000,
111100110010,
111111100011,
000000010010,
111101000000,
111111001000,
000000101101,
111100100100,
111101101010,
000001011001,
111110000100,
111100011101,
111111001111,
000011001000,
111100101111,
000000100100,
000001000111,
111111011001,
000001010011,
111100011001,
000011010010,
000010101000,
000001110110,
000001011010,
000010111000,
000010110010,
000001000110,
111101000011,
111100101111,
111111111111,
000001111011,
000000011101,
000000000001,
111101110101,
111100010000,
111110010011,
000011010011,
111111010111,
000000010000,
000011100111,
000011110111,
000010100000,
000001111111,
000001111010,
000001111111,
000010011001,
111100000111,
111111010011,
111100100011,
000011010010,
111100110110,
000010101000,
000011010111,
000010011000,
111101101001,
000001011111,
111110110110,
000001111101,
000010000010,
111110011001,
000011110001,
000010010101,
111111110000,
000011110001,
111100011010,
000010011000,
000001001101,
000001010000,
000011111010,
000001000011,
000000110101,
111110101011,
000001101111,
111111111111,
000001011011,
111101001110,
000001111101,
000011001110,
000010001001,
111110011010,
111110000000,
000001100111,
111110011000,
111101111111,
111111011101,
000011100011,
000011100101,
111101101011,
000000111000,
000010101111,
000010111001,
000001000000,
111111000011,
111100000111,
111100100011,
000000110100,
111110010111,
000001110111,
000001101011,
111111000011,
111110001101,
111100010110,
000011111100,
000010111101,
000010111111,
000011001011,
111101010010,
000010011100,
000001110000,
000001001000,
111110111011;
