memory_initialization_radix=2;
memory_initialization_vector=
111111010111,
000000110001,
000011101100,
111110110001,
111000011110,
000100000001,
000000000010,
111110011010,
000000100101,
000100100100,
000000000101,
111111011000,
000001011001,
111110110111,
000001110010,
000001111001,
000010100011,
000001010010,
111001110011,
111011101001,
111101011000,
000000001110,
111111111110,
000000000101,
111111011010,
111110100001,
000011010111,
111111001011,
111010110101,
000000111100,
111110010100,
000000001011,
000011110010,
000011110000,
111101111101,
000010010010,
000010001001,
111111101100,
000010000110,
111111101001,
000011011111,
111100111100,
000001001011,
111100011111,
000100011100,
111100110010,
000001011001,
110111010101,
111111111011,
000011111101;
