memory_initialization_radix=2;
memory_initialization_vector=
111100011000,
000000011001,
111110000111,
111101100001,
000001101100,
111111110110,
000011111000,
111110001000,
000011101010,
000011100100,
000000010000,
111101001111,
000000101001,
000011011110,
000001111001,
111100100000,
111100110100,
111101100100,
111110100011,
000010001001,
000010011010,
000000101011,
111101101100,
000001000000,
111110101111,
000000100111,
000011001011,
111110101001,
111111101011,
000010101110,
111100001101,
000001100110,
111111001000,
000010010100,
000001001101,
111110011100,
000011010100,
000000011001,
111110100110,
000010101010,
000000100110,
000010110000,
111100111010,
111100001001,
000000100101,
000000101010,
111110011001,
000000110110,
000011001010,
111100011101,
000011100110,
111100110001,
111110110000,
111111010001,
111110001000,
000001010110,
111100100100,
111111111101,
000000001001,
000000111011,
000011000001,
111110010101,
111100010100,
000000010011,
111110101011,
000001010011,
000010101010,
111111000111,
000011101011,
111100110101,
111101111101,
111111101100,
000010000100,
000010010101,
000000010010,
000011000100,
000011100000,
111101110100,
111111100101,
000011011001,
111111000001,
000000000101,
000010100001,
000010001000,
000000010001,
000011010101,
000001010101,
111100101010,
111110010101,
111100001110,
000001111000,
111100010011,
000000000011,
000001001100,
000010101110,
111110110010,
000001110111,
000011100001,
111101111011,
000000101011,
111110111000,
000010011001,
000001110111,
111110000001,
111110011100,
111101100000,
111111101011,
111100111010,
000001101000,
000000101101,
111111001101,
111110000111,
111110111011,
000001010001,
000010001101,
000000100110,
000001110000,
111101001001,
000010011100,
000011001010,
111100010011,
000011110010,
000000001100,
000011010111,
111101010111,
111101110100,
000000101010,
111111100010;
