memory_initialization_radix=2;
memory_initialization_vector=
000011110001,
111110000011,
111100101011,
111111001000,
111110011010,
000011000101,
000000001010,
000000011111,
000001001111,
000001110010,
000001001011,
111111011100,
000011111011,
111111111011,
000000010100,
111100101110,
111101111000,
111111011100,
111111000011,
000001111111,
000001110100,
111101110000,
111110001010,
111110100101,
000001011010,
000001001011,
111111101001,
000001010001,
111110110010,
000000011110,
000010010010,
000001101111,
000001011000,
000000110011,
000001011011,
000000011110,
111111000001,
000001000111,
111111111111,
000011111100,
000010101101,
000010000100,
000001010001,
111111101011,
000001000010,
000011110100,
000011101110,
111111001110,
000010110110,
111101011101,
000010100010,
111111110111,
111111111011,
000001101110,
111101000100,
000000000100,
000000101011,
111101101101,
111111100000,
111110000101,
111111111110,
111111011100,
111101000100,
111101111111,
000000000101,
111101010101,
000000000100,
111101110111,
000000010101,
111100011111,
000000111000,
000010000000,
111101111110,
111110111001,
000001000110,
111111001111,
000001011100,
000010000001,
111111111010,
111111001011,
000010001001,
111100110000,
000001010101,
111111111111,
111111010111,
111111000101,
111100110101,
111100000010,
000000101001,
111111010000,
111100100100,
111111101101,
111111110110,
000000101000,
000000100011,
000010000001,
111110010111,
000000001000,
000010100001,
111111011001,
111100100111,
000000110110,
111110001110,
111110101000,
111111100100,
111100011010,
111100011100,
000000000101,
111101100000,
000001110110,
000001111111,
000001010101,
111101000101,
000001010111,
111101101011,
000010110010,
000001000011,
000000101001,
111111101010,
000001110011,
000000111110,
000000100100,
000000110011,
111111011010,
000000010100,
000001011111,
000010000110,
000010010000;
