memory_initialization_radix=2;
memory_initialization_vector=
111100010010,
111110000010,
000011101100,
111110110101,
000011011001,
000001001111,
111111001000,
111111000001,
111111011001,
000010001000,
111111100110,
000011100110,
000000101100,
111100101010,
111110111000,
111100000101,
111110111100,
111100000100,
111110101100,
000011011001,
111110111111,
000001011010,
111101011101,
000001100100,
111100111110,
000000011111,
111101101001,
111110011010,
111111101001,
000000101100,
111101000111,
111101111100,
111110111111,
000010011111,
000000011011,
111111110101,
000001100111,
000000111111,
000000101010,
000011011100,
000011011111,
111100101100,
000001010011,
000010010101,
000011010100,
000011001100,
000010000010,
000010111110,
000011000011,
000010110010,
111110011001,
111111011100,
000010111000,
111111110011,
000011001101,
111111100011,
000010001101,
111101000001,
000010010001,
000001110100,
111110010100,
111110011110,
111101101000,
000001000000,
111110100110,
000001100000,
000011011000,
111101010001,
000011101011,
111111111011,
000000110110,
000011111101,
000000111101,
000011000011,
000001101011,
111101100000,
000001010001,
000010111000,
111100111100,
111100011011,
111111110001,
000000101110,
111110111111,
111111000011,
000011011010,
111111101111,
111100001111,
111100110011,
000011001101,
000001011010,
000000110110,
000011110000,
000001011000,
000000100000,
000011000100,
000010010110,
111101000011,
111101111110,
000001001110,
000010100010,
000001001011,
000011101111,
000001110011,
111101110000,
111111100011,
000011110000,
111110000101,
111110100111,
000001011011,
000011011111,
111110000101,
111100100011,
000010000111,
111111010100,
111101000010,
111110100001,
111100101110,
000011100111,
000010111101,
111111010111,
111100101101,
000011010011,
111101111101,
111101110111,
000011001001,
111110000010,
000000100000,
000010001100;
