memory_initialization_radix=2;
memory_initialization_vector=
000001000100,
111100111101,
111101010101,
111111111011,
111110110100,
111111111010,
000000001011,
000001100101,
000001100100,
111111101100,
111110100011,
111111100010,
000000101010,
111110010000,
111100011100,
111110011000,
111100111100,
000010011000,
111100100110,
000001101000,
000001001110,
000001011110,
000011011000,
111101000000,
111111100110,
000010101110,
111111111000,
111110101111,
111101100111,
000000001010,
111110000100,
000000101111,
111100000101,
000010110001,
000000101011,
000011010010,
111111110001,
111111111010,
111101010000,
000000011101,
111101110011,
000010100101,
111111111000,
000000110101,
111101101101,
000001110010,
000001001101,
111100111001,
000001000111,
111110000011,
000001101000,
000010111111,
000010011101,
111111011110,
000011000111,
000001101011,
111100111100,
111101100011,
111110000000,
000010001001,
111111010100,
111110000101,
000011010101,
111101010011,
000010100110,
111101111000,
000000111010,
000011000010,
000000010000,
111111111100,
000010110010,
000011000110,
111111000101,
111111101011,
111111000100,
111110101001,
000011010010,
000000100001,
000011100010,
111101000011,
000000010101,
111111011010,
111100111110,
000011101100,
000010111010,
000010110011,
000010101011,
000001000101,
111111100101,
000001000100,
000000011100,
000010100011,
000001101100,
000001111000,
111111000100,
111101000010,
000001000101,
111110011000,
000011101000,
000001110110,
000011101111,
000001111111,
111101000110,
111101010001,
000010011101,
000000110010,
111110010011,
111101101100,
000010011000,
111101011000,
111111011111,
111110011100,
111101101101,
111100111000,
000000100000,
000001000000,
111111000101,
000001001100,
111110111000,
000000101111,
000000110010,
000011111111,
111100110011,
000010111001,
000011100011,
000000000010,
000010101011,
111100101001;
