memory_initialization_radix=2;
memory_initialization_vector=
000001100100,
000010000100,
000010111101,
111110111101,
111110011000,
000000111100,
111110111111,
000001110110,
111110010100,
111101111001,
111111001001,
000001111111,
000010111010,
000010010010,
000000110010,
000000110111,
000000010000,
111101101111,
000011011111,
000001001001,
111111000100,
000000000110,
000001000010,
111100011000,
000000010111,
000001001011,
111111111111,
111100100100,
000010101011,
000001011100,
000011101100,
111111100001,
111111001011,
000010000001,
000000101101,
000011001101,
111100010000,
111111100010,
111111000110,
000011001001,
111101110010,
111111110111,
000001001110,
000000010100,
000010011000,
111100011100,
000001000110,
000011111010,
111111010001,
000001110101,
111111100101,
000000101100,
111101101111,
000011111011,
111111101010,
000001000010,
000000100001,
000010101011,
000001010100,
000010110100,
000000001010,
000010111000,
000000001000,
000001010110,
111101100110,
111111110000,
000001101000,
000010111001,
000010010100,
111101111100,
000000000011,
000000101010,
111101010001,
111111010101,
111100001101,
111100100100,
111101110000,
000001010001,
111101011001,
111101010110,
111101001010,
000011101110,
000000101110,
111111101000,
111101001110,
111110100111,
000010011101,
111100111011,
111101000011,
111110000101,
000010010001,
111101001100,
000010101100,
000001000100,
111101110110,
000011101001,
000010011111,
000001010111,
111111000110,
111110011001,
111110001100,
000011001111,
111101110010,
000011010100,
111100010100,
000000011011,
000001010001,
000010011011,
000001100001,
111100000100,
000000101111,
111100110000,
111111100100,
111101001000,
000010110100,
111111011001,
111101000101,
000010100000,
000000100010,
111111011011,
111100110010,
111111110000,
000000110101,
111101001101,
111100000100,
111111101000,
111100110100,
111101100110;
