memory_initialization_radix=2;
memory_initialization_vector=
000010001000,
000000010000,
111110110100,
111111111001,
000010011010,
000011000110,
111100011011,
000010100011,
000001010110,
000010001010,
000000101100,
111100111001,
111100010000,
000011100001,
111101111100,
000011001000,
111110010101,
111101101101,
000001111101,
000010010100,
111111100111,
111110110001,
000011111111,
111110010000,
111101100100,
111110111111,
111111101010,
000000111010,
111101110000,
111100111010,
000000011011,
000001111111,
111100000110,
000001101100,
111101100000,
000010011010,
111110110101,
000001100010,
000010001010,
000001111110,
000010111001,
000001101000,
000010000011,
111110010111,
000011001111,
000000111100,
000000110100,
000010011010,
111100010000,
111100100011,
111111110000,
111101111100,
111100101111,
000010100110,
000010001111,
111100100011,
000011011000,
000001011100,
000011011000,
000011111011,
000001011100,
000011111011,
111110110110,
000011111000,
000011001000,
000001101010,
111110111010,
000000011001,
111100111111,
000010111001,
111111001110,
000001110011,
111100110010,
111110110001,
111101000101,
111100101011,
111101011100,
111101101000,
111100111011,
111110111001,
111101001000,
111110010011,
000000000000,
111111111101,
111111101110,
000011100101,
000010111111,
111101111110,
000011011110,
111100000111,
111100100000,
111101001001,
000011100000,
111110001010,
111110010000,
111110000011,
000010101000,
111111001100,
000001111011,
111100001011,
111101100111,
000001010100,
000010000100,
111100111101,
000000011110,
000000101000,
000001111110,
000000100100,
111101100010,
000000001001,
111100111001,
111101000101,
111100101111,
111110111100,
000001010100,
111100010000,
000011001010,
111101001011,
111100100011,
111100011110,
111101011001,
111110001100,
111110001010,
000001100111,
000001101110,
000001010101,
111111000111,
111101000101;
