memory_initialization_radix=2;
memory_initialization_vector=
111101011000,
111111110010,
000010011010,
111111100111,
111111010001,
111101100101,
000001000010,
000000101010,
000011000000,
000001001010,
111101000111,
000011111011,
000011110111,
000001110101,
111111110000,
111110010011,
000001001001,
111101000101,
111111011100,
111110000100,
111111000101,
000000001110,
000010001100,
000001010011,
111100110000,
000011000101,
111111010001,
000000100100,
000001101001,
111111100010,
111110001000,
111110111001,
111101011111,
000000011101,
000000010001,
000000010010,
111101011101,
000000110111,
111101001111,
000001111111,
111101110111,
111101001100,
111100011110,
111101010110,
111110100100,
000010100111,
111110001001,
000000000010,
111111100001,
111100000011,
000001100100,
111100000101,
000010101010,
111110101011,
111101000000,
111101001001,
000000010111,
111100111101,
000011000101,
000011100100,
111110010001,
111100000011,
111100000001,
111110001101,
000010001100,
111101111011,
000001101011,
111110100011,
000010010101,
000000111100,
000011111101,
000011000100,
111110111001,
111100111110,
000000000111,
000000101100,
111111000101,
000000101001,
111111000100,
111101101111,
000010000101,
111101110011,
000000011001,
111101110000,
111111101111,
000011100111,
111100110101,
000011001100,
000011100111,
000011100000,
000010010101,
111100111001,
000011101110,
111100000110,
000000010000,
000010011110,
000001111000,
000010001110,
111100000100,
000010010010,
000001111001,
111101000100,
111110100100,
111100000100,
000001000011,
000000100101,
111110010101,
111101001110,
111101000000,
000000010111,
000001101111,
000000001010,
111111111001,
000011001110,
000011100101,
000000110000,
000010010010,
111101110110,
000001110000,
000000110101,
111101001011,
111110000000,
111100010111,
000000110101,
111111011001,
111100110100,
000001101001,
111111101101;
