memory_initialization_radix=2;
memory_initialization_vector=
000001101011,
111100000110,
111101011110,
000010100011,
111101111001,
000000000000,
111111010110,
111101010011,
000000110100,
111110000011,
000001100000,
111101001100,
111100111111,
111100001101,
111100110000,
000010011001,
111111011110,
111101010101,
000010100110,
111100011111,
111100101101,
111110011110,
000011011011,
111110111011,
000011011000,
000001001111,
111111100001,
000011001100,
111100011101,
111111001000,
000010110110,
111101001100,
111100011111,
111110000011,
000001110101,
111101010111,
111100101111,
000000111001,
111110010110,
000010010000,
111101111111,
111111001110,
111100011010,
000001001101,
111100111111,
111101111010,
111110001110,
000000001101,
000010110100,
111111011010,
111100101100,
000010101100,
111101011000,
111100001000,
111101111011,
000001101110,
000011110111,
000010110011,
111101111101,
111111010111,
111100010011,
000001001010,
000010010111,
111111110011,
111100001000,
000011110000,
111101101010,
000001111101,
000011011111,
111111000101,
111101001001,
000010001001,
111111000001,
000010001101,
000010101111,
000000011000,
000010001001,
111110011000,
000001001111,
111101001101,
111100111010,
111101011110,
111110010110,
000010000111,
000011111000,
111101001101,
000011110111,
111111110101,
000001100011,
000011011000,
111100011001,
111110000010,
111101111111,
111100010001,
111110010100,
111100101011,
111111010011,
111111100101,
111100111001,
000011011100,
111111100000,
111111110100,
111100000001,
000011101111,
000010000100,
000001110000,
000000000101,
111111100110,
111100001111,
000001110010,
111110100010,
000000011011,
111111101111,
111100011001,
111111000101,
111101010111,
000000110001,
000011100111,
000000001110,
000001001100,
000000110010,
111110011010,
000001111110,
111100000001,
000010111000,
000010001110,
000011000101,
111111001100;
