memory_initialization_radix=2;
memory_initialization_vector=
000010100001,
111110001101,
111101010011,
111111010110,
000001001010,
000011101101,
111100011111,
111110011010,
111111011001,
000011010101,
000000101010,
000001111001,
000010110100,
111101001011,
000000011110,
111111101010,
000001011110,
111100111000,
000011111010,
111101010100,
000001000011,
000011111010,
000010010001,
000001101101,
000000000010,
111110010010,
111111010000,
111100111100,
000000000010,
111100001010,
111101001000,
111110100011,
000001011000,
000001001001,
000010101101,
000010011110,
111101100101,
111101111011,
111101100011,
000000001100,
000001111101,
111111001100,
000011111000,
111110100111,
111100011101,
111101001011,
111100110110,
000011010110,
000010100010,
000011001110,
000010110110,
000011000111,
111100011010,
000001100101,
111111110001,
111111110101,
111111111010,
000011111100,
000001011101,
000001101101,
111111000010,
000001111100,
000011101000,
111110110100,
111101111111,
000000000011,
000000011000,
000000100110,
000001101111,
111100011011,
000010011000,
000000111001,
000011010110,
000010000111,
000010110001,
111101001110,
000001000011,
000011010010,
000010111010,
000010010010,
111111011011,
000001000111,
000011000101,
111111000000,
111101000000,
111110000000,
000000010000,
000010101110,
000001111101,
000011101011,
000011111000,
000001001001,
111110010111,
000000010001,
111100010011,
000010010001,
111111100101,
111101100100,
000001101011,
000000110010,
111101010110,
000000011000,
111101000011,
000000100100,
111111100000,
111110110111,
111111101011,
000001101110,
111110011011,
000001011011,
000001010110,
000001000010,
000010000000,
111101000100,
000010010100,
000000101010,
000000110111,
000000111111,
111110011000,
111111010001,
111101110111,
000011001101,
000000001001,
000011110001,
000000011000,
000010000010,
111101110001,
111111110110;
