memory_initialization_radix=2;
memory_initialization_vector=
000010011010,
000011001000,
111101001110,
111100110001,
000010110000,
111100110011,
000010011010,
111101100010,
000001110000,
111110101111,
000000001100,
000010001010,
000010011010,
111110001010,
111110010011,
000011001111,
000010111100,
111100011110,
000010111110,
111110100111,
000001111000,
111100110111,
000000111111,
000000011001,
000010011111,
111111110011,
000011000100,
111111001101,
111101010000,
000010110011,
111100000010,
111101100000,
111100011101,
111110000011,
111101000101,
000000001001,
111111101110,
000001101110,
000010101010,
111101111000,
000100000000,
000011101010,
000001001110,
000010011100,
111110110001,
000011110010,
111111101111,
111100110110,
000001111000,
111110111111,
111100101101,
111101110110,
000000100011,
000010001101,
000010101101,
000000010010,
111111111110,
111100011011,
000000101101,
111111101100,
111101001000,
111100110001,
000011000101,
000010001110,
000010110011,
111110101001,
000010101000,
000010111001,
000001011111,
111101100100,
111110000100,
111100110001,
000011001000,
000000000110,
000010111010,
111111011001,
111110001101,
111101001101,
111100000010,
000000110101,
000011010111,
111111110011,
111100100001,
111110000110,
111110001100,
000010100001,
111111000011,
000000100010,
000000011010,
000011001000,
111101001110,
000000100011,
000000110011,
111100010001,
111100000010,
111101100010,
111101101010,
000011111110,
111101000100,
111101101011,
111110011010,
000011001100,
000011110001,
111110010100,
111111011110,
111110010000,
000011010000,
111101110110,
111111101000,
111101000111,
111111001000,
000011000000,
111101100101,
111101001001,
000000100010,
000000000100,
000011100100,
000010101110,
111110010000,
111110111110,
111101101010,
000000101000,
000001001110,
111110111100,
111111011010,
000001010010,
000000011010,
111110000010;
