memory_initialization_radix=2;
memory_initialization_vector=
111100100100,
010001011101,
111001100100,
001000000100,
111100111011,
110100101110,
001100011010,
111110101000,
111010110001,
000110110010,
110000010110,
100100011000,
111001110111,
111111111111,
001010101010,
000011001101,
010001011000,
100110010001,
101000100101,
101100111011,
000000010101,
110101101011,
000000000100,
111110111011,
110100010101,
111110010010,
010010110011,
111110011010,
010101111111,
011110111010,
101001110010,
001111100101,
001011011010,
111001101010,
110110100110,
001011000111,
000101111000,
000000011010,
000010111111,
111111110111,
000101001010,
111001111110,
111100010000,
110111001111,
111101100000,
000110101101,
001101010000,
111010011000,
111111111001,
000110010101;
