memory_initialization_radix=2;
memory_initialization_vector=
111101100000,
000011011110,
111111001110,
111111100101,
000011011100,
111111111011,
111110001010,
000000110000,
111110110000,
000001010011,
111100010111,
000001011011,
111110111010,
111110010111,
111111100010,
000001111000,
000011101110,
000011010100,
000001011101,
000000000011,
000010011100,
111111101001,
111111111001,
111101000111,
000001110010,
000010111111,
000011000101,
000011000110,
111100111111,
111110011010,
000010001011,
111100111111,
000010010100,
111110010101,
111101100100,
111111110101,
111111100000,
111110010001,
000001111011,
000010100101,
000011111011,
000011110011,
000010010001,
000011011010,
000001111111,
111100100011,
000000001000,
111100101011,
000001100110,
000001111001,
111111101111,
000010110111,
111111111011,
000001001011,
111110001111,
111110011110,
111111110011,
000001000100,
000000001110,
111111001100,
111100101000,
000010111001,
000000011111,
111101101101,
111110001110,
000010000001,
111110111101,
000010101111,
111110010010,
000000111011,
000011010111,
111110110010,
111100010010,
111101011000,
000001001000,
111101111111,
111101011101,
111100001000,
111110111001,
111100100011,
000001100010,
000000010010,
111101001100,
000011000111,
000011000110,
000001101100,
000000000000,
111100101111,
111111000001,
111111001000,
111111100111,
000011011100,
000011001101,
000000011100,
111110111001,
000011010111,
111110001001,
000000001011,
111101011101,
000010011001,
111110100110,
000010101001,
111111101111,
000010100101,
000011000000,
111100110111,
111100111100,
000001110001,
111100011101,
111101001100,
000001000100,
111110100011,
111100110001,
111100110011,
111111111111,
000000011110,
111110010110,
111101111110,
111110000001,
000010001111,
111111010000,
000001000001,
000001000100,
000000101011,
000011111001,
111110101011,
111111001101,
000000000111;
