memory_initialization_radix=2;
memory_initialization_vector=
111110100010,
000010000010,
000000101001,
000001000000,
111110100011,
000010111000,
111101100101,
111110110000,
000001011000,
111100111101,
000001011000,
000010100111,
111111111000,
000000000111,
111110011010,
000001111100,
111100101111,
111110000001,
111111101010,
111111010111,
000000111100,
111100101010,
111100110100,
111110110011,
000001011111,
000000001011,
000001100100,
000011000111,
111100001000,
111110111100,
000010000110,
111110010011,
111111000000,
111100111000,
111111010100,
000000010101,
111101101011,
000011101010,
000000111000,
111110110111,
111110100000,
111110101101,
111100100010,
000001001101,
111111100010,
111100001011,
000010011001,
111111111011,
000001101011,
000000010010,
000000101101,
000001010110,
000010010011,
000000001100,
000001110010,
000011000001,
111111011101,
000010100001,
111111000111,
111101001010,
111100011100,
111111001011,
111100000100,
111101011100,
000001011000,
111110011110,
000011011101,
111100101011,
111101111001,
000000111111,
000011100111,
111101001110,
000010011111,
000001001001,
111110100011,
000011011001,
000010111111,
000001000101,
111101111101,
000000010101,
111111111010,
000001000010,
111101100000,
111100000101,
111101001101,
111110011000,
000001000100,
111100000110,
000000001011,
111100010111,
000000010001,
111101001100,
111110000010,
111110001110,
000001010001,
000001011100,
000001111110,
111111100010,
111111011000,
000011010110,
111101000100,
111110010110,
111100101011,
111100000100,
111110011000,
111101001001,
111101010001,
000000000111,
000010110101,
000001000101,
111111100100,
000001000001,
111101010101,
000011100111,
111101110100,
000000010111,
111100111101,
000011001111,
111100100111,
000000111100,
111101010111,
000000101000,
111100110001,
000010100001,
000001111011,
000000101000,
111101001011,
111101010011;
