memory_initialization_radix=2;
memory_initialization_vector=
000000011000,
111110101110,
000001001111,
000011001101,
000000011010,
111111001011,
000010100011,
111101000010,
111100010001,
000010010010,
000001001011,
111111011001,
000011111010,
000000000000,
111110101001,
111100011000,
000001001111,
111111001011,
000011110111,
000000010101,
111101001001,
000011000101,
111111000010,
000010101011,
000011110010,
000000011111,
000011110010,
000000100000,
000011101111,
000011010001,
111100111101,
111111100011,
000011100100,
000001111110,
111101100010,
000010000000,
000011110000,
000000010011,
000001111010,
111101111000,
000011011011,
111111011100,
111101100110,
111100010010,
000011101010,
000001001111,
000001010011,
111111010111,
000000001000,
111110000010,
000011000111,
111111001010,
000010011001,
000000111100,
111110001111,
111100100001,
000010101110,
000000001111,
000000010000,
000000111110,
000001000110,
111110110111,
111111100011,
111111110111,
000011011010,
111111001001,
000010011111,
111100101011,
000010011101,
111111110111,
000011011010,
000010111010,
111111110010,
111101010111,
000000100100,
111101110010,
000011101010,
111110011010,
111101011100,
000010101010,
000010010001,
000000011111,
111110000011,
000001001100,
000001011000,
111100000001,
000010011011,
111111110110,
000011110111,
000001000001,
000001001111,
111110101001,
000010100111,
000001001000,
000011010001,
000000001000,
000011000110,
111101101111,
000000110010,
111100100100,
000010010101,
111110101110,
000000010110,
000010010110,
000011111010,
000011010010,
000010011101,
000000001100,
111111101010,
111110011001,
111110000111,
000010100001,
000011001101,
111101110000,
111111110100,
111100100110,
000000011100,
111100110001,
111110110110,
000000001100,
111111011110,
111100001110,
000010101110,
000010101110,
000011011010,
111110101100,
111111110000,
000001000111;
