memory_initialization_radix=2;
memory_initialization_vector=
000011100111,
111111000011,
000000011010,
000010001111,
111111011001,
000010011100,
111111111011,
000000101011,
000001100100,
000000110111,
000001111100,
000010010100,
000010110001,
111101011011,
111101000101,
111100110110,
111111010000,
000011001001,
111101111011,
111111001000,
000000100111,
000001110000,
111111001000,
111111100111,
000011001010,
111110111111,
000010101011,
111100100001,
000010111010,
111101111011,
111100000100,
000000000001,
111101000011,
111100111000,
111110011110,
111111011101,
111111101001,
111101000000,
111101010101,
000000011000,
000000101011,
000010011001,
111110001101,
000001110100,
111111100100,
000001011101,
000000000001,
000001100100,
111101001010,
111110000010,
000011000001,
000001001100,
000001110010,
000011011010,
111110101110,
000001010011,
111110101101,
000001000010,
000001111011,
111110111110,
000010111001,
111111110101,
000001100001,
000000011010,
000011001110,
000001100000,
000001100000,
111110101101,
111101111000,
000000001100,
111111001010,
111100100101,
111111110100,
111101101110,
000000010001,
000001001001,
111100101010,
111101110101,
000001001000,
111100110100,
111100000111,
111101000100,
000000111001,
000000110011,
111110110100,
000000011110,
000001101100,
111101101111,
000011010000,
111101111110,
111110000010,
000001101001,
000000010010,
000010101110,
000000100000,
000010111001,
111110101101,
111101000100,
000001001000,
111111110001,
000001100110,
000001110100,
111100100110,
000001111110,
000000011101,
111111000011,
000010011011,
000000011001,
111111110000,
111110111000,
000011011010,
111101100010,
111111001100,
000011000100,
000010011000,
000000001110,
000011001001,
000000010101,
111110000001,
000000011110,
111110111110,
000011010011,
111110101100,
000011010010,
000011111100,
111110100010,
000001011000,
111100010011;
