memory_initialization_radix=2;
memory_initialization_vector=
000011101110,
111101110011,
000001111111,
111100111001,
000000101101,
000011111010,
111101001101,
111101011000,
111110100100,
111100010010,
000001000111,
111101100101,
000010111011,
111111100100,
111100111100,
000010000110,
000000101011,
111100010011,
000000111110,
111100010011,
111111011000,
000001000000,
000001110110,
000010000000,
000001010110,
000001111111,
000010111010,
111111001100,
000001100100,
000000001001,
000001101010,
111100010001,
111111001001,
000011101010,
111111001001,
000011100101,
000010110000,
111110110010,
111100100010,
111111000101,
000000101111,
000001100111,
000011111100,
111111010001,
111100101100,
000000010100,
111101001100,
000001100011,
000000110110,
000001101000,
000011001100,
000001001010,
111110010001,
000000011111,
000000111000,
111100000010,
111101101110,
000000000110,
000001111010,
000011110100,
111100111110,
111100111000,
111100011100,
000010011111,
000001111010,
111111000000,
000011100011,
000000010100,
000011101001,
111101110001,
111100000101,
111111010011,
111110001111,
000011010111,
000011101100,
111100100001,
000000110100,
000011100111,
111100011001,
111101101101,
111100000100,
000011011101,
111110110011,
111100100010,
000010111101,
000000010001,
111100100001,
111100101111,
111101011101,
000011011001,
111110001101,
000010010111,
111111010000,
111111111110,
111111001100,
000011110100,
111111100011,
000011010000,
111100100100,
000001110111,
000000101100,
111111000001,
000010010110,
111110000000,
111110111110,
000000001101,
111110010001,
000011001000,
000010101111,
000000011011,
111101101110,
111110011111,
111111100011,
111100010100,
111110011110,
111101111000,
111110111011,
111101111000,
111100100011,
111111111100,
000001000100,
111111101101,
111100111010,
111100011011,
111110101110,
000011001001,
111110101110,
000010000111;
