memory_initialization_radix=2;
memory_initialization_vector=
111110001110,
000000101100,
111101011101,
000001111101,
000000110101,
000000000000,
111100001000,
000000111100,
000001000111,
000001000110,
000000001101,
000000101101,
000011011011,
000010111001,
000001111110,
111111001011,
000010010000,
111101010110,
111110010101,
111100100001,
000011010010,
000010000000,
111110101110,
000001101100,
111100011000,
000001110101,
111110010001,
000000001000,
000000101111,
111111100111,
111101011001,
111110100010,
000011011110,
000010111000,
111110101000,
111100011010,
111100000101,
000011000101,
111110000010,
111110101101,
000010100111,
111111100100,
111101110110,
000011100010,
000000100100,
111101111110,
111100100011,
000000100110,
111110100001,
111111011000,
111111110010,
000011000010,
000011101010,
000010110001,
000000110101,
111111101010,
000010111111,
111100010000,
111101011100,
000000000101,
111100001110,
111110011100,
111100111101,
111111111111,
111110110001,
000010101111,
111110001001,
111101000000,
000001101011,
111111000011,
111101101110,
000011100111,
111101101010,
111111000100,
111111111101,
000000110000,
000001110101,
000000010000,
000001111100,
000011000100,
000000100010,
000001111010,
000000000111,
111110101111,
000011011001,
000000100110,
000011000100,
111101110000,
111110110001,
111110111000,
111110011010,
111110000100,
000001101111,
111111000101,
111101111000,
000010100101,
111110000100,
000001010100,
111110111100,
111111110011,
000010101010,
000001001100,
111110000110,
111111001001,
000000111011,
000000100011,
111110100011,
111111101110,
000001010100,
111100001000,
000001101010,
111110011101,
111111101100,
000011000110,
000000110100,
000001110010,
111111011101,
111111011110,
000010000010,
000001010110,
000000110010,
000000000110,
111111000101,
111100000100,
000010000010,
111110001000,
000011110000,
000011110000;
