memory_initialization_radix=2;
memory_initialization_vector=
000001011100,
000011011100,
000010100010,
111100010110,
000011001111,
000001101110,
111100011111,
111111110111,
111101001111,
111100101111,
000001000001,
111111100001,
111100101011,
111101010101,
111110101100,
000000110101,
000010001011,
000001110010,
111111011000,
111101010100,
111101011100,
111110101100,
111101100011,
000010101101,
111110101010,
000011110110,
000011000100,
111100110001,
000001111000,
000001010011,
000011100001,
000011101010,
111100011110,
111100101110,
000010011100,
000001101001,
000011101001,
000100000000,
111100010010,
000000010101,
111111100000,
111100101110,
000011101101,
111100011110,
111101001110,
000000101011,
111111010000,
111101000011,
000001111000,
000010111000,
111110101110,
000011101010,
000011001101,
111111000011,
111111110011,
111100111110,
000011001111,
111111010110,
111110000101,
111101101001,
111111110100,
000001100111,
000000110000,
111101001111,
111110101001,
000001110001,
000000010100,
000001101001,
111101010000,
000001010010,
000010011011,
000011101110,
000001010000,
111111110111,
000011010010,
111101111101,
000000000011,
000000100110,
000010101010,
000001010000,
111110100100,
111110010110,
000000111110,
000011010110,
000001110000,
111100101000,
000000111001,
000000010111,
111101010111,
111110001111,
000001001111,
000010001000,
000000000000,
000010111111,
000010011010,
000011011010,
111100001111,
111100011001,
000010101001,
000010000101,
000001000111,
111111111011,
000010010100,
000001010011,
000010100010,
111100010111,
111111000001,
000000100000,
111110110110,
000001000111,
111101100110,
000001001000,
111101000111,
111100011110,
111100001110,
111110100111,
000000101000,
000000010110,
111111110111,
000000001000,
111101111110,
000011110111,
000000100001,
000011101111,
111111010101,
000011010010,
111100100111,
111101011000;
