memory_initialization_radix=2;
memory_initialization_vector=
000011101011,
111110000100,
111111100011,
111100011111,
111111011111,
000001110001,
111101000100,
000010110110,
000000111001,
000011010110,
111100100001,
111101101111,
000010110001,
111101101001,
111100110011,
111110010111,
000000110010,
111101000011,
000010101010,
111110000011,
000011011001,
000011111000,
000011011110,
111111010100,
111101110110,
111101000100,
000011001101,
111101010100,
000001110110,
111100110100,
111110001001,
000000011011,
000001001101,
111101110110,
111111110100,
111111001111,
000000110001,
111101011100,
000010101100,
000010110111,
111110101011,
000000101101,
000011101101,
111111101011,
111101101010,
111101000101,
111111011011,
111110010001,
111101011010,
000001111100,
000000010101,
111111011110,
000010100010,
000011111001,
111100111110,
111111010010,
000010100111,
000001000011,
000000100010,
111110110110,
111100100011,
000001001110,
111111111010,
111110101010,
111111011100,
111101010001,
000010000001,
000011101000,
111101000100,
111100010001,
111110000100,
111111111100,
111110000011,
111110011001,
111101100110,
111110001000,
000010001100,
000001000111,
000011000010,
000001111101,
000010011100,
111100101110,
000011001110,
000010001000,
111111011111,
000010100110,
111101110000,
000001011101,
111110010011,
111111000111,
000001111010,
111100100010,
000010101001,
000010010011,
111110011100,
111111100111,
000011001010,
000000010111,
000000111100,
111101111111,
111111000000,
000001100111,
111101011101,
000000110001,
111110100110,
000010111101,
000001010010,
111111000110,
111111010000,
111101000100,
000000100010,
000010001010,
111110010101,
000000100011,
111101011111,
000010010001,
000000011010,
111100001001,
000001010101,
111100101001,
111100100010,
000000100000,
111110101000,
111110010010,
000010001010,
000000000110,
111111000010,
111110100011;
