memory_initialization_radix=2;
memory_initialization_vector=
111111111011,
111101000011,
111100100111,
111110011101,
000001110110,
111101010110,
111111011000,
111100001100,
000010010000,
111111010101,
000010000011,
111111111110,
111100011001,
111110101010,
111100000111,
111100011010,
111111011101,
000001101010,
111111101101,
000001000101,
000011111001,
111111010100,
000011001010,
000010101100,
000011000001,
000011011110,
000001110001,
000011011101,
000001011000,
111111001110,
111101110101,
000000000010,
111101111001,
000010110011,
000011111100,
111110000011,
111111100000,
111101000100,
000001100011,
111100001101,
111101101000,
000011110010,
111100111010,
111100100011,
111110000101,
111101000110,
000010101101,
000000000110,
111101101110,
000001100101,
111111111111,
111100101011,
111110001110,
111111000010,
111111000010,
000001011000,
111111111110,
111101111101,
111100111101,
000001100101,
111111101010,
111100010001,
000000111010,
111100010010,
000000010001,
111111111110,
111111110000,
111101010101,
000001111001,
000010001111,
000010000000,
000011101100,
111100010100,
000010010111,
000001010001,
111101110100,
000001100010,
000011101010,
000010101000,
111101101010,
111100010010,
111101100011,
111100001110,
111100011100,
000001011001,
000011110001,
111111011110,
111110111101,
000001010100,
111100010001,
000001011000,
111100000010,
000000011010,
111111100011,
000010010000,
111110011010,
000011110000,
111111111011,
111100100010,
111110100110,
000011100111,
111110001001,
000010010011,
000001000110,
111111001001,
000001110111,
111101011001,
111100100101,
111101001001,
111111011111,
000011010000,
111110000001,
111110100000,
000011100111,
000011100110,
000001000111,
111101111000,
111101010111,
111110100010,
111110101100,
111111101101,
000000010010,
000010011001,
111110110001,
111100001001,
000000001100,
000010000011,
111111000111;
