memory_initialization_radix=2;
memory_initialization_vector=
111101010001,
000010000001,
111111100111,
000010001111,
111101101010,
111100010011,
000001010010,
111100010001,
000000010000,
111101011010,
000000010111,
000010100101,
000000111010,
111100111111,
000011111010,
000001000011,
000001111011,
000001011001,
111101001111,
000010011110,
111101011110,
111101000111,
111101110011,
000010101100,
000000101100,
000000000010,
111111000111,
000000001000,
000001110001,
111101001001,
111101111101,
000000010001,
111100001101,
000000111110,
000010100111,
000010000111,
000000111011,
111111101100,
000011100111,
000000010100,
111101010011,
000001111100,
111111001110,
111100110111,
111100011101,
111110010000,
111100001010,
111100101111,
000010000101,
111111001110,
000011100001,
000011001011,
000001001111,
000011100100,
111110000010,
000010101000,
000010000101,
000000011011,
111101001001,
111111000101,
000011110111,
000000110010,
000010000010,
111101100000,
000011100101,
000010001101,
000010111110,
000010001001,
111100100010,
111100110001,
000010011110,
000011101011,
000000001001,
111101110100,
000000011000,
111111011010,
000001110001,
000010001000,
111100100100,
000000001011,
000010100110,
000011110101,
111101101011,
000011001100,
000010000001,
000000000101,
111110000111,
000011000011,
111100111111,
111101001110,
000010101110,
111110110000,
111110000000,
111110011111,
000001000000,
111101000000,
000001010010,
000001011100,
111110011010,
111100010101,
111101011110,
000011110010,
000000000001,
111110110001,
111101110100,
111110000101,
111100100011,
111100100001,
111100010000,
000000011100,
111110110001,
111110110001,
000000010011,
000000111100,
000011101111,
111110110001,
111110110011,
111100010001,
000010111100,
000010110110,
111110010111,
111100110011,
111111111011,
000010001110,
111100010011,
000001011001,
111100100001,
000011110100;
