memory_initialization_radix=2;
memory_initialization_vector=
111111100001,
111100100111,
000010110101,
000011011100,
111100101100,
111101011110,
000011100111,
000011010000,
111110000010,
111111101011,
111110110010,
000000010001,
000000011011,
111101000101,
000011001010,
000000011001,
111100111001,
000000011101,
000010000101,
111110100011,
111110001101,
111110110110,
000000000001,
000001101110,
111110011011,
000010101001,
000000100110,
000010100111,
000001010111,
000010111100,
000001101001,
000010000110,
111100101111,
000000001101,
000010000100,
000001101101,
111100000100,
000010110111,
111100110000,
000000111111,
111110010101,
111101010001,
000011000011,
000011000001,
111110001111,
111100111010,
000010011000,
111100010010,
111100101011,
000010000100,
111111100000,
111101001000,
000000101010,
000000100011,
000000001110,
111111101111,
111100000111,
111111000010,
000000110011,
000011111111,
000000011001,
111111111011,
000010111111,
000000110001,
111110011001,
000010001010,
111111000011,
111110100011,
000000111101,
111101110000,
000000110111,
111110010011,
000011000000,
000001011010,
000000110100,
000001100111,
111100001011,
111101010101,
000010110101,
000011011110,
111111111000,
111111000100,
000000100111,
000001001101,
000010010001,
111100100011,
111110100100,
000001001001,
111101101110,
111110101001,
000001000000,
111100100111,
111101010001,
000001000011,
000000111111,
000001011100,
111111110000,
000000011000,
111110001010,
000010000111,
111101011110,
111110001100,
000010100011,
000011010001,
000001100001,
000000100111,
111110101000,
000010010010,
000010011101,
000000010101,
111111000000,
000010111011,
000000000110,
000010101011,
111110010000,
111100101010,
111100010101,
000001101011,
000000100001,
111100110110,
000001101011,
111101110101,
111101111101,
000010000100,
111110111001,
000011111000,
111110111111,
111101110110;
