memory_initialization_radix=2;
memory_initialization_vector=
000011010101,
111101000111,
000011111110,
000011101010,
111101010111,
000001011100,
000010100111,
000011110111,
111110100110,
000001111010,
111100110110,
000010000011,
000011001101,
000001001000,
000010000111,
000010100111,
111110111101,
000001100101,
111110010111,
111111010101,
000011101010,
111110110101,
000010101001,
111110111001,
000011110011,
000010010000,
000000110011,
111100011111,
111111011010,
000000000011,
111101100001,
000000011001,
000001100000,
000001100110,
111101010111,
000011101101,
111111011100,
000011000101,
000000111100,
000010000100,
111101101101,
111110001101,
000000111100,
111100011011,
000011101000,
111100111110,
000010000010,
111101001111,
111110111110,
000000001011,
111111011001,
000000110111,
000011000110,
111100011111,
000000010111,
111100101100,
111110011011,
111101110000,
000001001000,
111101100000,
000000011111,
111101000100,
111110010011,
000011111011,
000011110100,
111100100100,
111110001110,
111110110010,
111110100111,
000001010000,
111100011001,
000000100100,
111111001100,
000001110010,
111101111101,
111101110001,
111111101110,
000001000100,
000011010001,
111111100000,
111110001001,
000001011000,
111101110110,
000001000111,
111110100100,
111101111101,
111110010001,
000000110100,
111100011101,
111110100111,
000011101011,
111111001100,
000010101011,
111110110111,
111101111101,
111110100111,
000000011110,
111111001001,
000001100111,
111100111000,
000010100010,
111110010010,
111100101110,
000010110001,
111111010111,
000000010101,
000000010100,
000010001010,
000001011000,
111100001111,
111110011011,
000010110011,
000001010010,
000000010000,
000011101001,
000001000101,
000011010111,
111101011001,
111101100110,
000001000101,
000001101111,
111110011010,
111110000111,
000001110100,
000010001111,
000011011110,
000011101110,
000010001100;
