memory_initialization_radix=2;
memory_initialization_vector=
000011010000,
000001011100,
000010010111,
111100011001,
111111000010,
000000011000,
000001011101,
000001100111,
111100110000,
111100000001,
000000010101,
111111001010,
000000011111,
111101100001,
000010110101,
111100110100,
111101000100,
000011011110,
111101010111,
000001010101,
111110110110,
111100100010,
000001100011,
000000111101,
111111111011,
000000010110,
000001010101,
000010100001,
000000111010,
111111011111,
111110000101,
000000111000,
111111011101,
111101110001,
000000101011,
111110110111,
111101100100,
000010101111,
000010000010,
111110100111,
000011001001,
000000110011,
000000011110,
000001000011,
000010100010,
000000101100,
000010110111,
000000000101,
111101100001,
111111010111,
000001010111,
111101110111,
000000010111,
111101101000,
000000010110,
000011001100,
111111111111,
111111101001,
111110110111,
111111000010,
111110100011,
000011100000,
000000010110,
111100011100,
111111000110,
111111000011,
111111001110,
111111111001,
111101000100,
000000100100,
111100111010,
000001101000,
000000110100,
111100011001,
000010100010,
111111000011,
000011111001,
111100011110,
000011001011,
000011011000,
000011101001,
000000110000,
000010101110,
000010101000,
111110111011,
000001000000,
111100100110,
111111110000,
000010101110,
000001101100,
000011001011,
000010010011,
111100001110,
111110110110,
000011110100,
000001011011,
000001001101,
000001101001,
000011111100,
000010100000,
000001111110,
000000111000,
111100011010,
111110110001,
111110100100,
000001100111,
111100011001,
000011010000,
000000110111,
111100111011,
111110011000,
111100011111,
111111111001,
111110010111,
000011010100,
000000100001,
000010001011,
000010011100,
111111001111,
000011100101,
000001111011,
111111101000,
111100100000,
000000100001,
000000011010,
000000001010,
111101101000,
111100111010;
