memory_initialization_radix=2;
memory_initialization_vector=
000010100110,
111110010010,
111101000110,
111101011110,
111100111100,
000000111000,
111100110110,
000011110111,
000001011010,
000001101011,
111111111000,
111111010000,
111100111110,
000010111000,
111101011110,
111110101101,
111101111010,
111110100010,
000011101010,
000001101110,
000010100000,
000000101011,
000011010000,
000001010010,
000010010111,
111111100101,
111111001000,
111111111100,
111101110101,
000000011100,
111111011100,
000000010110,
111101001110,
111111101000,
111100100111,
000000010000,
111100000001,
111101101011,
111111010000,
000011101010,
111110101000,
111110011100,
111101110101,
000001000001,
000001100110,
111100011000,
111101101000,
000000001010,
111110011111,
111101011001,
111110001111,
000000110000,
111110110000,
000010100111,
111100011110,
000000100101,
000011011000,
111101111100,
000011010100,
111100101000,
111101101000,
000011100000,
000000110101,
000001110010,
000010111010,
000010010110,
000001001101,
000011110110,
111110011100,
111110000111,
111101100101,
111100101011,
111111110010,
000001011100,
000000111111,
000000110111,
000011001110,
111101001100,
000011100011,
111111000001,
000010010110,
000011010000,
111111101101,
000000111101,
111110111010,
111101010101,
000010000110,
111100001000,
111101101100,
000010100111,
000010010110,
000001110100,
000010000010,
000000100111,
111101001110,
111100001110,
000001111110,
111111001100,
111110000000,
111100101011,
000000011101,
000010110111,
000011011000,
000001010011,
111110001001,
000001101111,
111100001110,
111101011100,
000001010010,
000010110011,
111100100110,
000000111011,
111100100111,
111111110011,
111111000001,
000010110000,
000011001000,
000010010110,
000010001111,
000000010100,
111110100101,
000000111011,
111111010000,
000001110111,
000000111101,
000011001001,
111101010101,
111100111001;
