memory_initialization_radix=2;
memory_initialization_vector=
000011011110,
111101111101,
000010001101,
111100001000,
111101011111,
000010001111,
000010011011,
111111011011,
111110001000,
111110010011,
000010000111,
000001011000,
000001010101,
111101001001,
000000001011,
000001010110,
111100101100,
000001010000,
111111101000,
000011011101,
000001001000,
000010001001,
111111111011,
111110101000,
111110000100,
000011100001,
000010000110,
000000010100,
000010001101,
111100101010,
000011001101,
111101001111,
111100111011,
000011111010,
111100011100,
111111001011,
000001111000,
000010011011,
000010110110,
111100000000,
000011101101,
000000001011,
111110000101,
111110101011,
111110010111,
000000111011,
000001110101,
000011001111,
000001100000,
111101000110,
000010111000,
000000111000,
000011001100,
111111010101,
111100100111,
111110110101,
111100111000,
111100000001,
111111101111,
000010010101,
000000110000,
000011000101,
000011110100,
000010000001,
111111000000,
000000000110,
000010011100,
000001111100,
111101001110,
111100101011,
000010011111,
000001010101,
000010100111,
111100101010,
000010110111,
111111100110,
111111011101,
111101011100,
111101010110,
000010011001,
000011011000,
111100110100,
000010000010,
111110101110,
000001000001,
000010101111,
111100000100,
111100111000,
111111001011,
111100111000,
000010011101,
000001110101,
000001111000,
111100101111,
111111001000,
000000010001,
111101001111,
000010101111,
111110010010,
111111111010,
111110010001,
000011111101,
000001000110,
111111010100,
000010010110,
000011011100,
000011100100,
111111000101,
000011101000,
000011100011,
111111110110,
111110100110,
000001011101,
000011111000,
000001010010,
111111100101,
111111011011,
000010000011,
111100001011,
111111101100,
000000001101,
111111100100,
000000000110,
111100100110,
111101011010,
000000010100,
000011101010,
000011101000;
