memory_initialization_radix=2;
memory_initialization_vector=
111100110010,
111111111111,
000000110100,
111111111010,
000011100001,
000001000000,
111100110010,
000001010101,
000001100110,
000010001010,
111100111101,
111100001010,
000010100001,
000000010100,
111101011011,
111100100000,
000001001000,
111111111010,
000001011110,
111101001111,
000000110110,
000010010001,
000010001011,
000001110110,
000011101101,
111111011110,
000010000011,
111111000000,
111111101000,
000010111010,
111110011000,
111110101010,
000000010001,
000000000011,
111110010010,
111101100011,
111111001111,
111101110001,
000010100011,
111110000111,
111110110011,
000010101111,
000001000111,
000000110011,
000000010110,
000011011010,
000000001000,
111110011000,
111100001000,
000011011100,
111111000011,
000011100000,
000000110100,
111101011010,
111100111000,
000001111101,
111101111011,
000010101010,
000010011111,
111100011010,
111100110010,
000010000101,
000011001011,
111100111010,
111111101000,
111101101000,
000010010001,
111100011111,
000010111000,
111101110001,
000000101010,
111100011101,
111110000001,
000000101010,
000010111001,
000011101111,
000000100100,
000010100110,
000011110100,
000010000101,
000001101001,
111100100111,
000000100101,
000011100011,
111110010101,
111101100010,
111100000001,
000011101101,
111110101111,
000011011100,
111111010110,
000000110001,
000010010001,
111111010000,
000011000101,
000011100100,
111100000111,
111111101101,
111101010011,
000011001111,
111110100000,
111101010000,
000001100100,
000001010101,
000000001101,
000001010001,
000010100010,
000010101100,
000011101000,
111110100110,
111100000110,
000000001000,
000000010110,
000010101010,
000010000000,
000000111111,
111111001101,
111111110011,
111101000000,
111110111000,
000001001111,
000010111100,
000011001000,
111110100000,
000011001110,
111100011010,
111100001010,
000001000001;
