memory_initialization_radix=2;
memory_initialization_vector=
111101001001,
000011101011,
000010100111,
111101000100,
111101100100,
111110000110,
111111101000,
111110111101,
000011110000,
000000110111,
000011111101,
111111001011,
111101110101,
111101101011,
111111010100,
000000010001,
111100101100,
111110100010,
111110110100,
000000011000,
000000100100,
000000111100,
111101111001,
111110101001,
111100001010,
111110111010,
000011010100,
000010101010,
000000100000,
000011010101,
111101110001,
111110100101,
111111100111,
000010111000,
000001011000,
000011111101,
000010100001,
000000101000,
111101010000,
000000001111,
111110110110,
000000100101,
111100111000,
000001100111,
000011100101,
111110111011,
000001010000,
000000110000,
111110101010,
111101110010,
111110000101,
000000001110,
111110011001,
000000110111,
000010101011,
111110010100,
000001001110,
000001011110,
111101001011,
111100101111,
000011001001,
111111100111,
111100001011,
000000000110,
111111001000,
111101101001,
111110100101,
000001010010,
111101101011,
000011001010,
111111110110,
111111000101,
000010111001,
000010101010,
111101010111,
000000111010,
000010111100,
111111111110,
000000010110,
000011100100,
000001001001,
111110110110,
111110111111,
000001001101,
000010111111,
000001000111,
000011000110,
111111110101,
111101011100,
111111111011,
000001000011,
000001001110,
111100001101,
000011011100,
000011000011,
111111011011,
000000011100,
111110111000,
111101010001,
111100111100,
111111000101,
000010110100,
000011100011,
000000110110,
111110000101,
111110000101,
111111010110,
111100001011,
000010011111,
000010010111,
111111110011,
000010111110,
111101010000,
000010111010,
000011111111,
000000110101,
111110110011,
111101101001,
000000111010,
000010111001,
000000110111,
111100100110,
111111101100,
000010010111,
111100110010,
000000001010,
111100011010,
000001110000;
