memory_initialization_radix=2;
memory_initialization_vector=
000000101100,
000000101011,
000000011110,
000000100101,
000000110010,
000000100101,
000000110000,
111100111100,
000000011111,
000000011011,
000000101100,
000001101011,
000000111001,
000001010100,
000000110100,
000000111111,
000010000011,
000011011110,
000000001110,
111110010001,
111101001110,
111110100110,
111101110011,
000011001000,
000011101000,
111101101101,
000001011110,
111101111000,
111111111000,
000010110000,
111100111101,
111110110000,
000010001100,
000010001101,
111110111011,
111110110000,
111110001000,
000010001101,
111111011000,
000000111000,
111110110011,
111111011010,
000011000010,
111101010010,
111111010011,
000000100110,
111110111010,
000010101111,
000001110000,
111111011100,
111100000010,
111100101111,
111111110100,
000000111100,
111101111101,
111100111011,
000001110000,
111111011100,
111100000010,
111100101111,
111111110100,
000000111100,
111101111101,
111100111011;
