memory_initialization_radix=2;
memory_initialization_vector=
111101000001,
000001001111,
111110011111,
000011001110,
000010100000,
000000001011,
111100010110,
000001010101,
000000110010,
111111101101,
000010111101,
000001011110,
000011011100,
111100010110,
111110110010,
000011111110,
000001110010,
111101100000,
111110000100,
000011001010,
000011111110,
000011100001,
111100000101,
111110110000,
000011000001,
000011111000,
000011011110,
111110100110,
000010100100,
000010101010,
111100101100,
000011010010,
000001100100,
000010101101,
000011100101,
111100100110,
111110100111,
000010110111,
111110110001,
000010101010,
111101111100,
000010011010,
000011011110,
111101110110,
000000001111,
111100100110,
000001100101,
000011110011,
111100111111,
111110110111,
000000001100,
000010111001,
000011100011,
000001010101,
111100011111,
000011011111,
000011011111,
111111011010,
000011111001,
111101111111,
000011111001,
000000000111,
111110000001,
000001101011,
111111011101,
111100100001,
111100110111,
111110000110,
111111100100,
000001111111,
111101010001,
111111000100,
000001100111,
000001110100,
000010110001,
000010100100,
000001000101,
111111100000,
111101100001,
111111111100,
000001110011,
111111111111,
111100111100,
000010101111,
000001011010,
000001110101,
111110100000,
000000010111,
111110000110,
111101010101,
000010111011,
111110010100,
111100110000,
000010001100,
000000001011,
111101001101,
111101010111,
111101011100,
000011011101,
000010100001,
111111110100,
000010111010,
000001000001,
000000011101,
111101000101,
111100111000,
111111000101,
111101110000,
111110001111,
111101111001,
000000110010,
000001011001,
111111000101,
111101010101,
000000010001,
111110110110,
111100011101,
111100110101,
111110011011,
000011010111,
000011000111,
111100011110,
111101110110,
111101101111,
000001100100,
000000101100,
000001000000,
111101000100;
