memory_initialization_radix=2;
memory_initialization_vector=
000010110011,
000010100001,
111100000010,
000010100100,
111111011100,
111111111101,
000010101010,
111101100010,
111100101111,
111101100001,
111110111011,
111110101000,
111101111110,
111100110110,
111100011101,
111100011001,
111101101001,
111111011001,
111110011001,
000001001111,
111100101101,
000011111010,
111100110011,
000011110010,
111110001001,
111110011010,
000011001101,
111100000110,
111111000110,
000010000111,
000000110011,
111101111100,
000000101010,
111111001111,
111100010001,
111101110111,
111111000001,
111110101000,
000000101010,
111111010010,
000001011110,
000000000000,
000000001100,
111111100111,
000010010001,
000000000000,
000011001100,
111100010110,
111100010111,
000001011100,
111110101101,
111100000101,
111100001110,
000001011101,
111101110000,
000011001100,
111101011100,
111101010111,
000001011111,
000000001000,
111110001010,
111111001110,
111101101111,
000000100110,
111100111001,
111101001000,
111110100111,
111110111001,
111101001110,
000000101011,
000010100110,
111110000110,
111101010101,
000011011001,
111101011010,
111100001100,
111101010010,
000001000001,
000000000101,
111100101101,
111101110000,
000011010011,
000010101010,
111110011010,
000000000011,
000011110001,
000001101000,
000000000110,
000010110001,
000010101000,
000000100111,
000010010000,
111100011011,
000001011111,
000011100100,
111111010111,
111101100001,
111100010111,
111111111111,
000010101001,
111100000010,
111111110100,
111101001010,
000010111101,
111111011111,
111101011100,
000010110010,
111101000110,
111111101110,
111110001100,
000000101110,
000001001011,
111101111101,
111111010100,
111100101010,
111101011110,
111110000100,
000001111111,
000000011101,
111111111010,
111110101010,
000010100111,
000011101010,
000000111110,
111100011111,
000010110001,
000010101001,
000000100101;
