memory_initialization_radix=2;
memory_initialization_vector=
000011101010,
000000000011,
111101110101,
111101111100,
111111110001,
000011010100,
000011110010,
000011000100,
111111010001,
111111110010,
000000010110,
000011000111,
000000001110,
000010110101,
000001101010,
111100101001,
000001111000,
111111100111,
111101010011,
111100111110,
111110111110,
111101011101,
000001011001,
000000011011,
111110111001,
111110011110,
111101111110,
000011100111,
000000001001,
111100000010,
111100100110,
111101011100,
000010101101,
111101011000,
111101101010,
111101011110,
000011000001,
000011010110,
000010000011,
000010000011,
111101010110,
111111000111,
000011001101,
111111100111,
000010011000,
111100010011,
000011110001,
111110010111,
111111000100,
000010110110,
111100000001,
111100000111,
000011110010,
000001011100,
000000010111,
111110111011,
111111001110,
000000101101,
111110110011,
000011000001,
111100001011,
000001110110,
111110110110,
111100011100,
000010010101,
000011010011,
000010010100,
000000101101,
111110010000,
000010100100,
111111110110,
000011110110,
111110011000,
111110100110,
000000100100,
111111001101,
111101101101,
111101000111,
000010110011,
111111110101,
000011111111,
000001010011,
000011110010,
000010001011,
111100000000,
111110011111,
111111111000,
000000000110,
111110101000,
111110100000,
111111000010,
111110111100,
000011000011,
000011100011,
000011001010,
000010100111,
000011100111,
000000001011,
111100100111,
000000010101,
111101001111,
111110101101,
111100111101,
000011011011,
111110001000,
000001110111,
000001000110,
000000111110,
000011100011,
000010001100,
111111010100,
000010111001,
000000010101,
111100010011,
000000001010,
111101010010,
000001010100,
000010101111,
111100101000,
111101100110,
111100011000,
111110100111,
111100101110,
111110001111,
000001111001,
000001100100,
111111001110,
000011011111;
