memory_initialization_radix=2;
memory_initialization_vector=
111100010010,
000000100011,
111101001010,
111100101010,
000000000100,
000000100111,
111110101110,
111100110111,
111100100011,
111111100110,
000000001010,
111110100011,
111101101011,
111111001100,
111101101101,
111101000001,
111100110110,
000001101000,
000010000111,
000010100010,
000000001111,
000011111110,
111100011100,
111101111011,
111100011100,
000011100000,
000000111000,
111111011111,
111100101000,
000000101000,
000001011100,
000010000110,
111111011111,
111110001010,
111110000111,
000000010110,
111101000001,
111111110001,
111101100000,
111110110010,
000010101001,
000011111010,
111110010000,
111100110000,
111111101110,
000000110010,
000001001101,
111111010011,
000010111110,
000011010110,
111111110000,
111111011110,
111110001111,
000001111010,
111111001101,
000011000000,
000001110001,
111100000001,
000010100011,
000000111111,
111111100011,
000000100001,
000011100100,
000011101011,
111101100110,
000011111001,
000000100011,
111101111001,
111111101110,
111111010100,
000000101011,
000000101001,
111100111100,
000000111100,
111110100111,
111100110110,
111111101110,
111101011101,
000010011110,
111100010100,
111101100000,
000000111101,
111100011011,
000000110100,
111110101100,
111100100011,
000001100001,
111100000110,
111111001110,
000001010010,
111100100100,
111111000011,
111111011111,
111111011011,
111110010101,
000011100001,
000000101011,
111111100001,
000010010011,
111110001010,
111111111001,
111110101110,
000010001010,
000010011001,
000011110000,
111111001011,
111111010001,
111101101010,
111111101011,
111100111010,
111100110001,
000010001110,
000011010111,
111111100000,
000011111110,
111101011111,
000001001110,
000010100011,
111101000100,
111101110100,
111100010100,
111111000001,
111101001010,
000010001110,
111101000010,
000011111101,
000001001000,
111110001100;
