memory_initialization_radix=2;
memory_initialization_vector=
111111000011,
111100011100,
000000111110,
000010001101,
111110000110,
111101111011,
000011010111,
000011000010,
111101110011,
000001010011,
111101001101,
111100101110,
000001000011,
111100010000,
111100100101,
111111111000,
000010010010,
111101011110,
000001111011,
000010100001,
111101111111,
000011110001,
111111011101,
000010110110,
111100011000,
000010110011,
111110100111,
111111001010,
000000000000,
111111010000,
000001001010,
000000100111,
000000111011,
000011110010,
000011111110,
111100001001,
000001110100,
111100010110,
111110100101,
000010011000,
111111001110,
111101111001,
111111100011,
111100000111,
000001011010,
000010011000,
111101110111,
111110010110,
111111101100,
000011000110,
000001111110,
000010000001,
111111011000,
000011110000,
000011001010,
111101001000,
111111000000,
000011001111,
111100101100,
000000001001,
000000100010,
111110001010,
111100111010,
000010011110,
111111111110,
000010101001,
000001000101,
000011111000,
000000111011,
000010111000,
000001101110,
111110111001,
000001000101,
000000110100,
111110111001,
111111001011,
000010011110,
111101001101,
111111001100,
000011110001,
000010101101,
000011111011,
000010101111,
111110101111,
111111111001,
111101010101,
000000010000,
000000001001,
111100101000,
000001010010,
111100001101,
111111010010,
000000110011,
000010101011,
000001101111,
000011010110,
111100101101,
111111001010,
000010110000,
000010001011,
111100110100,
111101010111,
000001111011,
000011110011,
000001110000,
111100001010,
000001111110,
000000001110,
000010100110,
111111010101,
000000011000,
111110101011,
000011010100,
111110100110,
000001101100,
111111101110,
000000000010,
111100010110,
000000010101,
111100000101,
000001001000,
111111011001,
111111000010,
111111001111,
111101100010,
000011101110,
111101010011,
111110111000;
