memory_initialization_radix=2;
memory_initialization_vector=
111100110010,
000011010110,
111101001011,
000001100000,
111101110010,
000011001111,
111101010110,
000010100110,
111101111011,
111101101011,
000010111001,
111101100110,
111100001001,
000011111000,
000000100000,
000010001111,
111110010111,
111110100011,
000001001111,
000001011000,
000001111110,
000000011011,
000000000101,
000000101110,
000001111001,
111100001101,
000010100111,
111111011100,
111100011010,
000000010001,
000011101001,
000001000000,
111110001100,
111110100011,
000011110011,
000000101001,
000001001001,
111110111101,
111111001110,
000000011011,
000010010110,
111101100100,
111110011111,
000010101000,
111110010010,
000011100000,
000000101111,
111101101110,
111101111110,
000000101100,
111100101011,
111110110101,
000001000111,
111111101101,
000010111011,
000001100110,
000011111010,
000010111010,
000001000001,
111110100010,
000000111000,
111101111100,
000000110010,
000010111110,
000000100110,
000010100010,
000011111110,
000010100011,
000000000011,
111111000001,
111110101110,
111110010011,
000011000110,
000010101110,
111101100110,
111111011001,
000000001001,
000001101011,
000001101011,
111100000111,
111101101101,
111111000100,
111100110010,
111110110000,
111110111100,
111111111110,
000010110010,
000011100111,
000011000110,
000000000000,
111100110101,
000011110011,
111110101000,
000010000111,
111111111110,
111101010101,
111100111100,
000000010010,
111110110001,
111110000101,
111100100111,
111101110001,
111101010011,
111101101001,
000010001001,
111110100110,
111101111001,
000001100111,
000011010111,
000011101101,
111100000111,
000011010101,
111110001111,
000001011110,
000000101111,
111101100111,
000011010101,
111111000000,
111100001111,
111100101101,
111100100001,
000001001100,
000011001001,
111111010010,
000001011000,
111100000001,
111100110011,
000000101111;
