memory_initialization_radix=2;
memory_initialization_vector=
000001010000,
000000111011,
111110000101,
000001001100,
111110000100,
000001100110,
000001010000,
111111000101,
111111101010,
111111011010,
111101100010,
000010111001,
000011001000,
000011011101,
000001011010,
000010010000,
111101110101,
111101000001,
111111011001,
111111100001,
000001010010,
000001011100,
000000011101,
111110110111,
000011000101,
000000110010,
111100111111,
000011110011,
000010010010,
000000101110,
000000001100,
111101011010,
000011101101,
000001110100,
111110111011,
000011101101,
111100100100,
111100001100,
000001111110,
111100110001,
000010011010,
000010010000,
000000001010,
111111011011,
111101110101,
111100010000,
000011101001,
111101000110,
111111001100,
111101010011,
111111000101,
111101111110,
000001101010,
111111110010,
000000000001,
111100010101,
111100010011,
111100001001,
000011010010,
000001011011,
000000111110,
111110001110,
111101100001,
111110101101,
000000001011,
111111010001,
111100100111,
000011001110,
000010101010,
111111111010,
111101101000,
111100000001,
111101110111,
111101100100,
111101011010,
000011110011,
000010001110,
111110101101,
111111000111,
111100111001,
111101100000,
111110010001,
111110101111,
000011100100,
111111011000,
111111101111,
111110100100,
111111001100,
111111010000,
111111100000,
111101100011,
000011110101,
111100111010,
000011010010,
111100101100,
111100011011,
000011010110,
000000101100,
000001001000,
000000011000,
111100111111,
111111101000,
111110011100,
111101110110,
000000011100,
000011001111,
111101011111,
111101010010,
000010000000,
111101100000,
111101001010,
111101010110,
111110110010,
111110011110,
000001101010,
111111000010,
111111011110,
000011101101,
111100000101,
000011010001,
000011011101,
111111100111,
111100011110,
000010110111,
111101000110,
000000101101,
111101110001,
000001000001;
