memory_initialization_radix=2;
memory_initialization_vector=
000011101010,
000000101100,
000001100001,
111110111101,
000000111111,
111110111100,
000001110010,
000100000000,
111100100011,
111111110001,
111111110101,
111110001010,
111100000000,
000000010010,
000011001100,
000000000011,
000010000000,
111110001100,
111111001110,
000001011100,
111100001101,
000011001100,
000001101001,
111111001100,
111101100001,
111110001010,
000011111010,
111111001011,
000000111101,
111100110111,
111111111101,
000011001111,
000011010000,
111101111001,
111111100011,
111100010100,
111111010001,
000010000110,
000010011100,
111111101010,
111100011010,
000000100101,
111111001010,
000000000111,
111111100100,
000011001000,
111100111100,
111110011111,
000000010111,
111111011101,
000010110000,
000011110110,
111100011001,
111110001010,
000011111000,
111110101100,
000011110001,
000010101000,
000010011010,
000001111110,
111100100110,
000010000001,
111110100000,
000010110100,
000001111011,
111100011011,
000000100111,
000000100000,
000000010000,
000000010100,
000000100110,
111111011000,
000001001010,
111111001100,
000001100100,
000100000000,
111111100001,
111100000001,
000001111110,
111110000101,
000011011011,
000001000100,
000011111011,
111111110110,
111101101000,
111101001110,
111101111110,
000010010110,
000001000001,
000001011101,
000010111010,
111111010011,
111100010010,
111101000001,
000011001010,
000001011100,
111100111010,
111100000001,
111101111011,
111101111100,
111110111011,
000010100010,
000010011110,
111110110010,
111111010010,
000001000110,
000010010101,
111111110100,
000000110011,
000010001101,
000000000110,
111110100010,
111100011101,
000001101010,
111110000000,
111110010110,
111110010111,
000000110011,
111110111010,
111110000110,
111110010100,
111110100101,
000000000100,
111111111100,
111100111100,
000001000011,
111111000010,
000010110111;
