memory_initialization_radix=2;
memory_initialization_vector=
000010010111,
000010001111,
000000000111,
111111011111,
111100001111,
111100001111,
000001111010,
111110000101,
000010110000,
111110110011,
111110000110,
111101000110,
000000111011,
111110011010,
111100011100,
000010011001,
000000110101,
111100101000,
111100110110,
000010110100,
111101110101,
000011000110,
000010100000,
000001110110,
000001110001,
000000110000,
000001101101,
000010100011,
000000100101,
111111100011,
111101110000,
000001001011,
000000100110,
111110100000,
000010010000,
111101001001,
000010010000,
000011110101,
111101111000,
111101000000,
000000111011,
111111000000,
000000110101,
111101011100,
000011010001,
111100100100,
111100111010,
111110110001,
000010000010,
111101011110,
000010111001,
000001001101,
111100001100,
000011101011,
111100100100,
000001101110,
000000011000,
111111000010,
111100011011,
111101110100,
111110111110,
111101011110,
111101111100,
000011000110,
000000000001,
000000110001,
111111010001,
000010000000,
111100111111,
111110010001,
000010111000,
000010110111,
000011010001,
111110111011,
000011010100,
111101101110,
111101010101,
000011101001,
111100101001,
000001001010,
000001110111,
000001101010,
111111100001,
000001100111,
111101000011,
000010011111,
111100011100,
111101100011,
000000110101,
000001110000,
111101000010,
000010011001,
111100110111,
111111001101,
111111010011,
000011000101,
000001011111,
000010000001,
000010100111,
000011000011,
111101000101,
000000010010,
000011101100,
000000001010,
000000010001,
000011011101,
111101011001,
111111011000,
111100001101,
000011000110,
000011001111,
000010001000,
000011111100,
000010010111,
111111010100,
111111011111,
111111000101,
111101110111,
000011111010,
111110100101,
111100100000,
111111100100,
111101101110,
000000100010,
111101011011,
000001110100,
000010011010,
000011111111;
