memory_initialization_radix=2;
memory_initialization_vector=
111111001001,
111110000001,
111111001101,
000001110111,
111100111001,
111110101011,
111111010101,
111101110100,
000000001110,
000000011000,
000011110010,
111101010110,
000001110110,
111100011011,
000011001111,
000001101010,
000000011011,
000001000011,
000001111100,
000000101000,
111110110010,
111110010111,
111100010111,
111100010000,
111100111110,
000011001011,
000001010100,
000010111000,
000011100100,
000011100001,
111111000001,
000001110101,
000000110001,
111100011111,
000010010100,
000011111110,
111110011111,
111101110111,
111100010011,
111110100111,
000000111000,
111111100001,
000001100101,
111101100110,
111110001011,
000000001110,
000000010001,
000011010110,
000011110110,
000000010110,
000010110111,
000011000110,
111101011011,
111100001111,
111111010100,
111110110010,
000010111010,
000001010101,
111110100011,
000010011010,
000011100000,
111110010101,
000011001011,
000010110100,
000000010000,
000010000000,
000011100111,
111111000000,
000001010110,
000001101101,
000010010000,
000000010000,
111100010101,
000011000101,
000000100000,
000011010100,
111110101111,
111100101000,
000011000100,
000001110001,
000011000010,
000010001001,
111100101101,
111111101001,
111100011000,
111111010000,
000001001110,
000010001110,
000001110101,
111100010001,
111101001110,
000010001010,
111111000001,
000010110001,
000001100110,
000011001101,
000000111000,
000011110010,
111100000000,
111101101110,
000011111010,
111111000111,
000010100101,
000000011100,
000000000001,
000001011000,
000000100111,
111110100001,
000000010111,
111101111001,
000000111100,
000010001001,
000011001101,
000000110000,
111110111111,
111111001101,
000011101111,
111110010011,
000000100101,
000011001101,
000000001011,
000010011111,
111110100001,
111100010000,
111100001101,
000011011011,
111101100100,
111110010011;
