memory_initialization_radix=2;
memory_initialization_vector=
000001010000,
000010101110,
111100110111,
111101111000,
111110011111,
111100110111,
111101011001,
000001001010,
000010001111,
111110001010,
111111001111,
000010010101,
000001111010,
000011100101,
111101011011,
000001111110,
000010010100,
111100101111,
000000110010,
111100001011,
111101110011,
000011100100,
111100110111,
111111111100,
111111001111,
111100001011,
111111100111,
111110100110,
111110111000,
000000000100,
111101011010,
111110001101,
000001110100,
000000100111,
000011010001,
000011011111,
000011001110,
000001000100,
000011001010,
000011111010,
111101110110,
000011101101,
000001111110,
000011101011,
000010001101,
111110101010,
111110001001,
000000011010,
111101000010,
111100100100,
000011011010,
111101111101,
111100110010,
000010001011,
000010110110,
111100111111,
111111000111,
000000011100,
000011011101,
111110100001,
000011001100,
000010100111,
000001110101,
111101011001,
111101101010,
111110010011,
000010101010,
111110011001,
111100110100,
111111011001,
111101100101,
111111001101,
000011101111,
000001100010,
000011110111,
111110010101,
000001001111,
000001110101,
000001111110,
111111100011,
111100110101,
000010011000,
000010010110,
000001001110,
000011001111,
000010110100,
111101111010,
000011100101,
111100101000,
000011001011,
111100000111,
111111010010,
111110101101,
000000000110,
000010100111,
000000100101,
000010101111,
000000000101,
111101011001,
000000110110,
111101100001,
111111111100,
111100010000,
111100100011,
000001011111,
000010010011,
111111001010,
000011111101,
111111100001,
111101000010,
111100011100,
000011000000,
000011110011,
111110101011,
000001001011,
111110000111,
000011010111,
000001100111,
000000010101,
000011000001,
000011011011,
111101111100,
000011100010,
000001010000,
000001000111,
000001111011,
000000111100,
000000000101;
