memory_initialization_radix=2;
memory_initialization_vector=
111111111001,
000001100110,
000011010100,
111111001111,
111101110110,
000010011000,
000001001100,
000001010111,
000010100100,
111101001110,
000001110001,
111111001000,
111111110110,
000010111111,
000100000000,
000010001110,
000011110001,
000000111000,
000010000100,
000000001101,
000010101111,
111100010101,
111111110100,
000011110101,
000000111110,
111101000111,
000010010010,
000001110010,
000000011101,
000010001001,
111111001010,
111110101100,
000011110001,
111100101110,
111110100011,
111111111111,
000010010010,
111101010011,
000001111100,
000011110110,
000000000001,
111111011100,
000011111110,
000000011010,
000001100010,
111110100111,
111100111111,
111110011101,
111100101011,
000000101011,
111100000010,
000000111111,
000001111111,
000011101011,
000010101000,
111101110100,
000000000101,
111101001001,
111111110101,
000010011101,
111100011100,
111110000110,
111111001011,
000000111000,
111111101000,
111110100011,
111111110010,
111111101011,
111111110110,
000010001011,
111110001001,
111101111000,
000001001101,
111100101011,
000011011011,
111100111001,
111100101010,
111110110011,
000011111110,
000011111101,
111101110101,
000000110101,
000000111111,
111100011111,
111101001101,
111100000010,
111111010110,
000001011011,
111110001001,
000001100011,
111110001001,
000001011100,
111110010000,
111111011011,
111101101110,
000010010000,
000001100011,
111100110101,
111110110101,
000011101000,
000010100111,
000011011011,
000011000110,
000010000011,
111111101011,
111101010100,
111111011001,
000001111000,
000011100101,
000011001101,
111100011101,
000010000110,
000010110111,
111100000010,
111101110011,
111101010001,
000011111100,
000000011101,
000011001111,
111101010001,
000011111101,
111111100111,
000011110101,
111110101011,
111101011101,
000010011010,
000001011001,
000001111010;
