memory_initialization_radix=2;
memory_initialization_vector=
000001111100,
111101100101,
111100101011,
000001001100,
111111100001,
000011001000,
000000001110,
000000101110,
111111100001,
000001011110,
000011011110,
000010001010,
000001010010,
000000100110,
111101101011,
000001110110,
111111000111,
111100111000,
000000011110,
000010010111,
000001110010,
111101111101,
111100110011,
000011101001,
111110110010,
000010011010,
000001011001,
000001000011,
000001100011,
111101011000,
111111110111,
000010100011,
111110010010,
000000000110,
111111000100,
000010000011,
000000010101,
111101000001,
111111010001,
111101110000,
111100000011,
000011000101,
111100001111,
000000000011,
000010010010,
111100001111,
111110000011,
000010011010,
111111000010,
000000110111,
000000000100,
111100010010,
111100111110,
111111000100,
111111110000,
000011000000,
000100000000,
111101010010,
111101111111,
111100011011,
000001010000,
000010000101,
000011101111,
111101001010,
000010100010,
000001110111,
000010100100,
111100000011,
111111101001,
000000011101,
000010111000,
111110011001,
111110000001,
111110000001,
000000100100,
000000001111,
111111110110,
000011010000,
111101010111,
000000011101,
111110000101,
000000000010,
111110111000,
111111100011,
000000100110,
000010100011,
111101111111,
111101001011,
111111010101,
111101101111,
000011001110,
000010110000,
111110010100,
111100110001,
000001000000,
000000010111,
000000110001,
000010010001,
000011100000,
000011001101,
111110100111,
000010001010,
111111000001,
111101111111,
000010010100,
111100000101,
111101011101,
000000010101,
000011001011,
111110111100,
000010001111,
111110111111,
000010110111,
000010010101,
000000010100,
000011011101,
111101110000,
111101111101,
000001111001,
111101110111,
000010010000,
111101111000,
000010001011,
111111000100,
000011001001,
000011011111,
000000100000,
000010000001;
