memory_initialization_radix=2;
memory_initialization_vector=
111100010000,
000010101001,
000011010010,
111110011000,
111110000110,
000001111101,
111111011101,
111110010101,
000011100011,
000001011100,
111100110000,
000011000101,
000000101010,
111100100000,
111100110101,
000000011101,
111101001110,
111101001001,
111100001101,
111101110101,
111100001011,
000000110101,
111101011100,
111101110110,
111111001100,
000000011001,
000001101111,
000000011011,
111111001000,
000001010000,
111111011111,
111100000001,
111110101111,
000010101001,
000010111110,
111100111011,
111111101101,
111111010001,
000000110110,
000000010110,
000010000111,
111110000101,
111110101001,
111110111101,
000010100101,
000010110010,
000011011011,
111101011001,
111110100111,
000010001000,
111111100111,
111101001000,
000010000100,
000000011100,
000010111110,
000001111011,
000000000110,
000011110100,
000011011010,
000011010001,
111111100001,
111111100000,
000010111100,
000010011011,
000001000000,
111101110000,
111111001100,
111110011000,
111111110010,
000001001011,
000001001101,
111110011010,
000011111001,
111110100001,
111101010101,
000011011010,
111111110110,
000010011100,
000010111100,
111101000111,
000001001001,
111111101000,
000001001010,
111100001010,
111100100001,
000010001000,
111101010100,
111100011111,
000011100111,
000000100100,
111111001000,
111111111100,
111100101011,
000001001101,
111110000111,
111101110101,
111111111110,
000001001101,
111100110111,
000001111110,
111111011111,
000000100001,
000000000010,
111100001011,
111101111110,
000000000001,
111110110010,
000001101011,
111100100110,
111110011101,
111111101101,
000001101110,
000001101001,
111110100011,
000001100011,
111101101001,
111110101010,
111101101001,
000001010010,
000000110010,
111110010000,
111101001001,
111111010011,
000000000010,
000000001101,
111110001101,
000000101100,
000000011001;
