memory_initialization_radix=2;
memory_initialization_vector=
111111100100,
000000100011,
111101111011,
000000000100,
111111111010,
000011110101,
000000011001,
111111011010,
000001011010,
000010101111,
111101111100,
111101100001,
111111111011,
111111101111,
000011001011,
111100100101,
000001100100,
000000011110,
111101101101,
000011100111,
111100001111,
111101101111,
111101000110,
111101000111,
000000101010,
000001010110,
111100001010,
111101100010,
000000110011,
000010101011,
111110111110,
111110110010,
111111100101,
000011010011,
000010011011,
111110111101,
111100011001,
000001011111,
000010100110,
111111010100,
000010101000,
000001001010,
000011110101,
000000101010,
000001100001,
000010010100,
000011010111,
111110111100,
000001011100,
000010001110,
111111111010,
000011110010,
111110101110,
111111110100,
000010111011,
000001001110,
111110011110,
000000100101,
111111000011,
111100100001,
111100011000,
111110101010,
111110011010,
111111100111,
000000100110,
000010111011,
000000000010,
000011001110,
111111010011,
000011101001,
111110010010,
000011101000,
000011111010,
111111111100,
000001011010,
000001101000,
111101101101,
111100001101,
111101101110,
111100010100,
111111111010,
000001100001,
000010000011,
111100110010,
000010101100,
000011111111,
000011001111,
111100000100,
000010010110,
111111010000,
000010110110,
000001001101,
111111011011,
111100101110,
111101000101,
111100100110,
111101011110,
111100101101,
000000111000,
000001010111,
000000010000,
111101011010,
111111011000,
000011101000,
111111101011,
000011110001,
000001000001,
000000110001,
111101011000,
111100011110,
000001000011,
111101100110,
000010010010,
111100000001,
000011101000,
111100010010,
111101100111,
111101111000,
111110011010,
000000111101,
111101101000,
111111000101,
111101101011,
000001101001,
111100010100,
111110001100,
111110010111,
111110000000;
