memory_initialization_radix=2;
memory_initialization_vector=
111110001111,
000011101011,
111110000111,
111110101101,
000011000000,
000001011100,
000010100011,
111101011011,
000001000111,
111110100101,
000011100001,
111110101001,
000011000010,
000001100100,
000001010011,
111110011001,
111110101000,
000010001010,
111111001110,
000011101000,
111111000110,
000000010001,
111100010110,
000001001011,
111100010110,
111111110001,
111111010110,
000000011000,
111111011011,
111100110010,
111111011010,
000010110101,
111110001111,
111110001111,
000010101000,
111111011101,
111101011100,
111101110100,
000001000000,
000001011100,
111110010011,
111110110110,
000011000110,
111111100110,
000001101000,
111111111100,
111110100111,
111111001011,
000011001011,
111111101111,
000000100011,
111101001000,
000010010100,
111101100011,
111111100000,
000011001101,
000001011111,
000001110100,
111100101011,
000001011111,
000001111000,
000011111101,
111111110111,
000011010011,
111111000011,
000010100001,
000000100010,
111111100010,
000001011011,
000011100001,
000000101100,
111101000111,
111100010011,
111110101110,
111111101110,
000010011101,
111110101100,
111101000001,
111100110111,
000011011010,
111100000011,
111110010101,
000011100110,
111100111010,
111101000100,
111101000000,
000001001000,
000000010001,
000010101110,
000000001111,
111101000001,
000000010011,
000000111111,
000000110101,
111110000011,
000011000110,
111111110001,
000011011010,
000011110001,
111111101000,
111100100111,
111100011110,
000000001000,
000001011110,
000011100011,
000000101001,
111111100111,
000010111000,
111111100100,
000010011010,
111101110101,
000001101010,
111111010010,
000011110001,
111100000101,
111110010111,
111110100111,
000011011110,
000000111100,
000001110000,
000011010100,
000000111011,
111100010001,
111110100111,
000000110101,
111100011101,
111101100111,
111111010011;
