memory_initialization_radix=2;
memory_initialization_vector=
000010000010,
111110101101,
111101111011,
000010010111,
111111101011,
111111110001,
000011110111,
111101011100,
111111000110,
000000111010,
111110111000,
111100011100,
111101101001,
000010101111,
111110011101,
000011100011,
000001010000,
000000111111,
111101011010,
000010111100,
000010011011,
000001110100,
000011010110,
000010011101,
000010011010,
111100100101,
111111100000,
000000110000,
111101001110,
111110111001,
111111001110,
111101100101,
111111111110,
111100101101,
111111111111,
111110001111,
000000110000,
000011001101,
111110011110,
111110111100,
111111110100,
000001000100,
111111101111,
000010111011,
111101100010,
111101111101,
000001001110,
000010011100,
000000011110,
000000111001,
111100100011,
000010101100,
111111001100,
111101010000,
000000110010,
000000000010,
000000000111,
111110010001,
000011000101,
000010011111,
000011101001,
111101010111,
000010010000,
000011100111,
000001101000,
111100110011,
111110101101,
000001110101,
111111001100,
111101010011,
000000000010,
000000111011,
000000000010,
111101111001,
000000001001,
000000011011,
000000000001,
000000001101,
111100001101,
000011111100,
000001111101,
111100010111,
111100111011,
000011111010,
000011110110,
000011101011,
000000101100,
111110011110,
111101101000,
000011111000,
111110100001,
000010110000,
111111100101,
111111011100,
000000000000,
000001110101,
111101111001,
000001000111,
111100110001,
111110010000,
000001010111,
000010010010,
000011110110,
111100100010,
000000011000,
111110011011,
111101010101,
000001001110,
111111110010,
111100110001,
111100111001,
111111001111,
111110011001,
111111100011,
111100010101,
000000110000,
111110001001,
111110110001,
111110000011,
000000010100,
111100001100,
111111001101,
000000010011,
000000100000,
000000100010,
111100101010,
111101101011,
000011011010;
