memory_initialization_radix=2;
memory_initialization_vector=
000010010110,
111101001100,
111100101000,
000000100111,
111101110101,
111101000110,
111100101011,
111101010000,
111100110110,
111101111100,
111100111000,
111111000001,
000000100110,
111111010110,
000010100011,
111110101101,
000001011111,
111101000000,
000000010000,
111101011101,
111110001000,
111111010010,
000010001001,
000010000011,
000001001101,
000001010110,
111101001100,
111100101011,
000010101100,
111110001011,
111101001001,
111100011001,
000001110000,
000001110011,
111101001100,
000001011100,
111110101011,
111111001001,
000011011101,
000000110100,
111111001100,
000000111111,
000000100010,
111101110000,
111100100110,
000011010101,
000000011110,
111100000000,
000010101000,
111111011110,
111110101111,
000000101101,
111111100101,
111110001010,
000011000000,
111100100011,
111100101110,
111111010000,
111101010011,
000000010000,
111111111101,
111111101000,
111110000000,
000000000000,
000000001100,
000011100110,
111100100101,
111110000010,
000011000011,
000011111011,
111101010111,
000011110100,
000011000111,
111111000100,
000010000001,
111110110101,
111111011100,
000001100000,
000010110001,
000010001100,
000010000111,
000011101011,
111100011011,
111111000101,
111110010010,
000010011011,
111100011001,
000011010100,
111100010001,
000000011010,
111111111111,
111111110100,
111101100100,
111110000101,
000001001000,
111101000101,
000010000001,
111100000100,
111100101100,
000011111000,
000010001000,
000010001111,
111100100110,
000011001110,
000000000100,
000010010100,
000011100000,
000011110001,
111110111111,
111101000001,
000010100101,
000011101011,
111100001010,
000000001011,
111100111111,
000010110000,
111110010100,
111110010100,
000011101100,
111101001000,
111100001110,
000000001011,
000010100110,
000010111111,
000000010011,
111101111110,
000011011101,
000001111111;
