memory_initialization_radix=2;
memory_initialization_vector=
000010000100,
111110110011,
000010111101,
111101010111,
000011110110,
000011001111,
111111001100,
111100111110,
111110010000,
000000100111,
000010001011,
000010101011,
000001000000,
000000111110,
111101011010,
000000001101,
111101101001,
000000010000,
111110111000,
000011011000,
111100010111,
000001010011,
000011001011,
000001111010,
111101001110,
111110010011,
111110010010,
111101001011,
111111011100,
000000001001,
111101110001,
000011011111,
000011110110,
111110100100,
111111100111,
000000011110,
000000010110,
000011110110,
000011000101,
111101101010,
000011100001,
000011001111,
000000010101,
000001111011,
000010110010,
000001100110,
000011100000,
000010101011,
111111100000,
111101100110,
111101000111,
111100110001,
000000001100,
111101101101,
000010101100,
000000100011,
000011000001,
111111111010,
000000100011,
000001011011,
111110111101,
111101111100,
111110011100,
111110110111,
111110101111,
000011011100,
111111101101,
000001100111,
111100101110,
111100011011,
000001101011,
000001011000,
000000011000,
111101000010,
000011101100,
000010111101,
111111000000,
111101010100,
000011011011,
111100010001,
000010110111,
111100011010,
111111001010,
111111101010,
111100001100,
111101111010,
111111010001,
000001100001,
111111011100,
000010001001,
000011000010,
000010000011,
000011100011,
000011100011,
111101010000,
000011001100,
111100000101,
111110100010,
000010100011,
000011010101,
000000101111,
000000000010,
000000100010,
000010010001,
000010000001,
111101111011,
111100100010,
000001000101,
111110101110,
000010111111,
111101111010,
000011000010,
000001000010,
111111001011,
000011111000,
111110001111,
000011001101,
111110010000,
000010011110,
111110001011,
000000010110,
000000101000,
000011111101,
000000111000,
000001111011,
111110110100,
000011000111,
000011010001;
