111111011101
111100100110
000011001001
111100010101
000001001101
111110111000
111101010000
111101100100
000001011000
111101110010
000011111001
000011001111
000010011101
111101100000
111101000000
111110101111
111100011100
000010111001
000010000111
000000100010
000011010101
111110110110
111110001000
111100000011
000001001111
000000110011
111100101010
111101011100
111111101000
000010111110
111101111101
000000111111
000000011110
111100111100
000011111000
111111000000
000001000000
111101000011
111111001000
111110101011
111100001011
111101010100
111100101011
000001011010
000010111111
111101111010
111111011000
111110110000
111100010000
111111110011
000001100000
000010011011
000010101111
000001111010
000010110010
000000000000
111100000101
111110010001
111111011000
000011100101
111100100011
111110000000
111101111111
000010000111
000001110000
000001000010
000010011100
111101100010
111101110111
000010101101
111100100100
000010001110
000010011000
111100001101
111111100011
111101010100
000010100100
000001010001
000001011000
000000101101
111110011000
000001011001
111101001001
111110100001
000001100001
000010100001
111111010000
111101010100
111110101100
000011100110
111101100101
111101000111
111110011011
000001011000
111111011111
000001101010
000011000111
000000110001
000010000101
000011101010
000000011111
000011010111
000010000100
111101101000
111101110101
000010110111
111101001001
000010001011
111111111011
000010110001
111100111010
000010101100
000000011010
111100011101
111100110000
111110001001
000011011100
000010100000
111110010010
000011011111
000000011000
111100110111
111110001000
111100011101
111110111111
111110011011
000001001100
000000000010
