111101000111
111101100110
000011001011
111100001000
000000100011
000010011111
000001101110
111100001001
000010010100
000011110001
111111000011
000010010001
111101101011
000011001011
111101011101
000010110001
111100000010
111110001011
111111111010
000011100000
111110011000
111101111000
000011101001
000011110110
111101001101
000010111000
111101010010
111101011101
000000000100
000001111010
000011011110
111101010110
111100011111
000011000010
111100111110
000010010010
111100111110
111101101101
111100000010
000010101010
000000011111
000000001010
000000000011
111100100100
000000010101
111111000101
000001101110
000010110001
111100001100
000011101110
111101000101
000011010000
000011001001
111111001010
000010010001
111110001101
111101110101
000011100101
000001101101
111101010011
111111011110
000000111000
111101111111
111110000101
111101010011
111100000101
111100100010
000000110001
000000111111
000010001111
111111110000
000000010011
111101110001
111100011001
000010101011
000011001110
111110111010
111101011101
111111001101
000000010111
111101111011
000001011010
000000001101
000011111010
000000111010
000011101001
000011011111
111111000110
000011101010
000011111100
000000100111
000001011010
000010001000
000011000010
111100011100
111111001111
111110010100
111101000100
000001111010
000011001100
111111011111
000001111011
000011011001
000000100001
111111110011
111101000010
111110001111
111110110010
111110011110
111110100000
000000101000
111100100001
000011010010
111110010011
111111011001
000001110001
111111100100
111101111001
000011101111
111101100111
000010110101
111110011100
111100111010
000001000000
000001101010
000011011011
000000000101
111110101101
