000011010010
000000011111
111110011010
000001000100
111110111110
111110111000
111111011110
000010001110
111110111110
111101100000
000001011000
111110110001
111110101000
111101111100
000000000001
000000111001
000011101100
111111001011
000010101001
000000101110
000001000000
000000000110
000000100010
000000111110
000010110001
000001100001
000001110100
000000001010
111111100011
111100100101
111110000011
111100110101
000000111111
111101001011
111100000110
000001011100
000000111010
111101101000
000001101010
111101000101
111100111011
000000001100
111110100001
000000011111
000011111110
000000001000
111110110110
111101001001
000010101011
111111000110
000000111010
000000001010
000001001010
111111101110
111101001000
111110000101
000011100111
000001001111
000001101110
111111001011
111111001111
000010101110
000000010100
111110100111
000001100101
000000010101
111101010000
111110100111
000011111110
000011000100
111110101111
000000101001
111111101111
111101111000
111100011100
000001111010
111111010001
111111011011
111111001001
111100011010
000000111101
000011011100
000010101010
000001110110
111111101001
000011010001
000010100111
111100010111
111111001100
000010011000
111110010001
111110100000
111101000011
000000001011
000011111101
111110011000
111100010110
111101111011
111110111010
000001001100
000001010101
111100111100
000010001000
000011011100
000011010010
111100001011
111101010011
000000101011
000011101000
111110001101
000010101000
000011110010
111110110011
000000110000
000011111100
000011010101
111100001001
111101100010
000011000010
111111111111
111101010010
000000100001
000011000000
000011100000
000001111011
111110100100
000010100110
000001100011
