111111000000
000011110000
111100010000
000011010001
000001001001
111110010111
111100011010
000000000010
111100110101
000010001110
000001100101
000000001010
111101010110
111100101101
000000010001
111100111100
000001101010
111100100010
111101101010
000000110011
111101011111
000011000000
111100011110
000001101011
000010000100
000010011000
111100010000
000010111100
111101010110
111111111111
000000001010
000011100111
111101100010
111100010011
000011101111
000000010010
000011101010
111110010010
000000011100
111100101101
111110000110
111111101011
000011010101
111110101100
000011110100
111100110000
000010011011
000001000110
111110101110
111110001010
000010101000
111110110011
000001000010
111101101011
000000001011
111111000111
000010010110
000001010000
111101000001
000010101000
000001011000
111101101001
111100101111
000001000011
000000011011
000000010001
111111011110
111101101110
111100100010
111111101001
111110010011
000010011100
111101001000
000010001010
000000111001
000011001011
111110011000
111111010110
111111011101
111100001100
000000100101
000011011110
000001000011
111100111101
000010110011
111111000001
111100101001
000010010010
111100111111
111111010111
000000110011
000011011110
111101100110
111100011011
111110000000
111110101111
111100111111
000011110110
111100000011
111111001010
111111001010
111101100101
111111100110
111110011111
111110011100
111111000110
000010010001
000001110111
111101111101
111110010100
000000001010
111110000101
111110001001
000001111100
111110010111
111101111101
111110011001
111101010011
000001000011
111101001011
000001001100
000000000111
111110110100
000000101001
000001101000
111111101101
000010010001
111100000100
