000000000111
111100100110
000010111001
111111000110
111111001001
000001001101
000000111001
111100001100
000011000111
000000011100
111110001100
000011011010
000001111111
111111001100
000010010111
000001110010
111110110010
000001010001
000000010101
111100011010
000010110000
000001011100
111111010001
111100110111
111110001100
000011111001
000010010100
000000001000
000011100111
000010000110
111110011101
000001001001
000000010010
111111001110
000011111110
111111100000
000011110000
000000000100
111111110110
111111011100
000011110110
111111100111
111101010101
000001001001
000000110010
000000000011
111100000001
000010010100
000011101001
000010010101
000011101010
000000110101
000001100000
111100011110
111101110101
111101010101
111100110001
111101101001
000011111000
111100000110
000001001001
111100110110
111100101010
000011000011
111110110101
111111111000
000000001001
111101100000
000001000000
000000010010
000010000101
111111111011
000010111110
111111000010
111100101111
000000100010
111111110111
000011000010
000001010010
000000011010
111101010000
111110001101
000011100100
000010100000
000001001000
111110101101
000011110111
000010101110
111100110010
111110110111
000011010011
111101101011
000000000000
000011101100
000010110000
111110011110
111101010110
000001100100
111101110100
111101101001
111100011011
111101111001
111110000000
111100101100
000011000101
111110101010
111101001111
111110101111
111101111100
000001100011
111100101010
000011110111
111110101111
111101010101
111100110010
111101001011
111100100100
000001010111
000001011001
111101001101
111101000010
000000010111
111110011010
111101010111
000011111001
111110111011
111111010001
000010101000
