111100010010
000010000110
111111111111
000011001101
000011010100
000010100101
111101011001
111110111110
111111000000
111110001110
111101110101
111101011101
111101101100
000000000100
000001111111
000000000011
111101011011
000010101001
000001001110
111110001011
111110100011
000000110111
000001011011
111110110001
000010001011
000000100011
000010111101
111101010111
000001011000
111101110100
000000100010
111101000010
000000001011
111111001100
000010001010
000000000110
111111100001
000010011010
000010010010
000000111000
000000001100
111101101000
000001101100
000001010111
000000101010
111101101010
111100101001
111111011100
000010000110
000010000110
000010110001
000000011011
000010010000
111100000101
111101100100
000000100100
000011010110
000010001011
111110011000
000000011011
111100111010
111111001100
000000101011
000011101000
000000010101
111111000111
000001000100
000011000111
111101101100
000011000011
111101001011
000000100011
111111110000
000010001101
000010000100
000000110001
111111110100
000001011011
111100101011
000010000001
111111101111
111111110101
111100110000
000000000000
000010000011
000000100010
000010100100
000001001011
111101110011
000000100011
111101101110
000000000010
000010111000
111110110000
111100010010
111100011111
111110110100
000000111000
000010110010
111110101111
111101100010
000010101011
000000101010
000010001000
000000000001
111100010100
111100101111
000010111100
111101000100
000000100011
000010111100
111100100010
111110100111
000001011110
000010101010
000011101110
111100110000
111111111100
111100001010
111111101011
111111011011
111110101101
111100111000
000010010001
000000010111
000011100111
000001001101
000010000000
