111111101010
000001101010
111101110101
000001001010
111110001000
000000000110
000011101001
111100100100
111100011101
000000001110
000010101101
000010111010
000000111101
111111010010
000000100110
000010011000
000000010011
111100001101
111111011010
111100010000
000011100011
000011111010
000001001111
000001000101
111111010111
111111110110
000011110100
111101111111
000011111001
111110100111
111111111001
111101101111
111101011010
000010010100
000001100010
000010010011
000001001010
000001110111
000010010111
111110011001
111111010110
000011000010
000011111000
111101110100
111100000110
000011100111
000010100110
000001011001
111110010100
000000010001
000010011100
111101110100
111111000001
000011001000
111111001100
000000011000
111110100101
000010010000
111110111110
111111000101
111100011101
000000110010
000001110111
111100100100
111101010101
000010101100
000010010000
000010100001
000010101101
000010101101
111101010110
000011000111
111110000000
000000110111
111110111111
000001010001
111101101011
111100010101
000011111011
111110001011
000001011001
000001011101
000010010110
000010111111
000000101011
000000110100
000010011111
000000000110
111110100001
000001010111
000010011111
000010000101
000011100100
111111010001
111101110000
111110101101
000000010111
111110011010
111100011001
111110000001
000011011100
000011110010
000011010011
111111100100
111111001101
111111110001
111100011100
111111111000
111111100100
111100000101
000000001111
000001001011
111100011001
000011101010
111101000011
111100001110
111101011001
111111010101
111101111110
111110010100
111100101110
111110011101
000010011011
000000000110
111100110110
000000101111
111100101010
111101101011
