000000110011
000011001010
000000000100
111111111011
000011001100
111110100010
000001000110
111101010011
000010100111
000011010000
000010100001
000000011111
111100101101
000001111110
111101000101
111110101011
000000110111
000011001100
000000101011
000011010100
000001110111
000010011001
000011011011
000001011100
111110100110
111101000000
000000010101
000001110011
000001111001
000000100100
111110101111
000011000101
111110110110
111110111000
000000000011
111101111011
111110011000
000010110001
111100010010
000001111001
111110000000
000011100100
000001100100
000010100111
111100010110
000010101001
111110010110
000010111111
111110011111
111110110010
000011101001
000011100101
111110100011
111100011011
111100001001
111110110001
000011101100
000011010110
111111010101
111111101100
000001000000
111110010011
111111011110
111111011011
000010111000
111100111100
111110100100
000000000100
111110100111
111110111111
111100001111
000000000011
111110001111
111101010111
000010110010
000001100010
000011111000
000011100001
111110000001
111101000101
111101001111
000000011101
111101011001
111110110111
000011101101
000000000011
000000101100
000011101010
111110110111
000010011100
111100000011
000011000110
111110111110
000010110011
000000110001
000000000101
111101100001
111110101111
111110011110
000001011001
111110101110
111100101100
111110101010
000010000101
000001101111
111100101011
000011001001
000000010100
111101111111
111111010011
111111111100
000000111001
000001010000
111110110100
111110000001
000010010000
000010100010
000010111010
111111000000
000000111100
000000111010
111111001010
000011010000
111100100000
000001001101
111100001001
000010001110
000000100011
