111100011000
111100111011
000000000110
111101000110
000001000011
000010010111
111101111111
111110010000
111100111100
000000001100
000010111011
111110000100
111110000001
000010111011
111101010100
000001001000
111111101000
111101110010
111110000100
000000110010
000010101000
000011100110
111110000101
000000010101
111111010010
111111111111
111111111111
000000110000
000010111100
111111011111
000000010100
000000011000
111111100111
000001100100
000000111011
000010101111
111110010110
000000100001
111100100001
000010101111
000001001111
000010001011
111111011011
000000000110
111110011010
111100100100
111100011010
000010011001
000011000111
000010010111
000011111111
000001001100
111111000110
000000001000
111111111000
111101101011
111100001111
111101011111
111111001001
000011110001
000001000100
000011100100
000010101101
000001011111
111101110010
000010010101
000001011000
000001100110
000000101101
111111001110
111111100001
111111111100
000001000001
111111001001
000000110001
000011001100
111101110001
111101110110
111100111110
111111011010
111110111001
111101110100
111100000001
111110011101
111101100001
111111001001
000010100001
000000000011
000010011000
000000100111
111101011101
000001001011
000000000101
000001000011
111101010110
111101111000
000000000010
000010100110
000011010111
111100010100
111100111110
111111011100
000010110100
000011010100
000000110010
111110110000
000000000101
111101111010
000001101111
111110011100
111110010110
111111100001
111100101111
111101011010
000011011001
111101111000
000000010010
111111111010
000011001001
000000100111
111100110100
111110110111
111110010010
111110100011
111111001000
111101100100
111100011011
000011001000
