000000111001
000010001011
000010011101
000001011011
000001010001
000010011110
000000011001
111100110100
000010010101
111100000110
000000110000
000000000111
111101011110
111101011001
000011100000
111100111001
000010011011
111110111111
000010111101
000001010100
000001100101
111110011000
000011000111
000000111100
000011100111
000001100100
111101111111
000011110001
111110100010
000000100010
111100011111
000000101100
111111101110
111111000011
111101001001
111111101011
111101101001
000010100011
000001100100
111100001100
000011101101
000010000011
000010011011
000001011111
000001101000
111100110101
000011010001
000001001110
111101010010
111101110101
000001100011
111111001111
000010010100
000001001010
000011001100
111100100111
000011011010
000011001010
111110100111
111111000011
111110010010
000001101010
111110001011
000001001111
000000001000
111110000010
000000011001
111101110000
000010000111
111100001010
111101110101
111110100001
000001011000
111101111010
111110110000
000000011000
111110110100
111111001010
000011100101
000011110011
111111010011
111110100110
111110010110
111101011011
111110011110
000001001100
000000101001
111101101000
111100110010
000011010000
000010111001
000000000000
000010110111
111110111010
111110110001
111100000100
111110010010
111111000100
000011100111
111111110011
000001010101
000000011011
111110100011
111111011010
111110011010
111101100011
111110010001
111111000101
111101100010
000001100000
000010101011
000011110100
111100110100
000010110100
111100110110
000001000100
000010110000
111101101100
111100111000
000010010101
111111010110
000011100110
111100011011
111100011011
000010011001
111110110011
000000111100
000001010100
