111110011100
111101001000
000010011011
111110100100
111110100111
000001100101
111111010001
000011101100
111110010110
111110010010
111111000001
111111001001
111100011111
111101111110
000010101001
000010000110
000000101111
111101001111
111110010111
000001110000
111101011100
111101111010
111100101111
000010101010
111100101010
111111001001
000000001110
000001101111
111100010100
000011110100
000001001100
000001010110
000011111101
111101101011
111100011110
000001111010
111110010111
111100010110
000011000110
111101011110
111110110010
111101100111
111111100001
000001000101
000010101001
000000101111
111110001101
111100111111
111111000101
111111001010
111100001010
111101110111
111110111000
111101000110
000001001011
000000001111
111111111111
000000001001
000001111100
000001110100
000001110111
111100001000
000001111010
000011011011
111101010101
111111110011
111111111000
111110100110
111110100000
111111101001
111100101100
000000100110
000000011101
000010101110
111110101110
000000110001
111110111000
111111010100
000001110101
111110011101
000011000110
111101000000
000011010110
111101111011
111100010101
000001001100
000001110010
111100101001
111111010101
111101000100
000000001011
111110000011
000010011110
111100110110
000000110001
000010110111
000011010010
111110110110
111110101000
000011101111
111100010101
111111110011
111111101001
111101101011
111111100100
111110010101
111110001111
000000111001
111110110101
000010001110
000010011110
000001100101
000011000001
000001101000
111101100000
111110000001
111100111110
000001110111
000011111000
000011010001
111101000100
111111111001
000001010001
111111010001
111101001111
000011110110
000001110010
111110110111
