000000110111
000010111010
111111010110
111110101111
000010010111
000011001000
111110110110
111100111101
111101001001
000001000010
000010100000
111111101011
000001101101
000010100010
111101010100
000001100011
111101110011
111101110110
111101000111
111110101011
111100010011
000010010011
000001110010
000011101101
000011001010
000000111100
000000011100
111101010100
111111101001
000010100011
111110011111
111101110111
000010000011
111110110001
111110011101
111100010100
000011110110
000001100001
000000101001
111101011111
111101100101
111100001110
111101010011
111110011100
000001111101
111110000010
111110000100
000010100101
000000110101
111110001101
000001011011
111100111111
000001000100
111110001001
000001111111
111100011010
111111110110
111110101010
000000101110
111111100000
111101100110
000001111001
000010011100
111100111001
000000001010
111111100111
000000111110
111110111101
000000101001
111101001111
111110001111
111111110111
000010000000
000010000000
111101001101
111111001101
111111000011
000000000001
000011100001
000010101010
000001011000
000001100010
111110001011
111111001110
000001100111
111101010011
111110010000
111100100000
000001011011
111101010011
111110001010
000011011110
111100111101
111110001011
111100111110
111100100011
000010011000
111101101000
111111011001
000011110100
111110011011
111100100110
000000011110
111111000111
000001010100
000011111010
111110000101
111101110011
000000110111
000010100000
000000010111
111100010100
000010000011
111101111001
000010100101
000001001110
000011111110
111101101001
111100101000
000001001010
000000111111
111111100101
111111000000
000000110000
000000101000
000010100111
111100010011
000000110011
