000011100111
000010001101
000001000110
111101111011
111100101011
111111000101
000000010000
000010110111
000011001110
000000011110
000000010010
000010110100
111110001111
000000010011
111100011011
000011100001
111101001110
000010000000
111100001110
000001010100
000000010101
000000001111
000011110000
000010101101
111100001101
111111110111
000011011111
000000101000
111101010110
000000111100
111111110101
000000110100
111110100110
111110011011
111111011101
111101101110
000001111010
000010100010
111100000011
111101110001
111101111110
111111111000
000000010001
111101011001
111100111001
000011010010
000000100101
000011010100
111100100101
000011101111
000010000111
111100111001
111100011100
111110111101
000011110100
000001011001
000011010001
111101111011
000010001000
000001100101
000010011000
111111110111
000001111111
111101111111
000000000010
111100111011
000011111111
111111011010
111100110001
000001011001
000010011011
111101000110
000000100100
111111001100
000001011011
000011010001
000011100000
111100111100
111111000010
000010101011
000010011100
000001100001
111111011010
111100000000
111101100100
111100100000
000011100001
000000110010
000000001010
000000101000
000000000111
111100001010
000010010001
000001101111
111100100110
111111100011
111100100100
111111000011
111111111000
111100011010
111111110010
000010011100
000000101000
111101100111
000011110111
000011101111
111100000101
000011111110
000011101111
111101111010
111100011010
111111000101
111110100010
000001011010
111110110110
000010011001
111100110011
000011101011
000000010110
111101010010
111101011000
000011100111
000001110010
000000010101
111111001110
111101011001
111111100011
000000001001
