111100001011
111111000111
111110010100
111110111100
000000011001
000000111011
111111100001
111111000111
111110100011
111100111100
000000111010
000001101000
111100010100
111110110110
000010000101
111101001110
000011111000
000010001101
000000101110
111100101010
111101110001
000010111111
000010100010
000010100111
111111011010
111110001010
111100101001
000011010011
111101101001
111111001010
000010100000
111110110101
000011000011
000000110100
111101001110
111111101001
000001010010
000010001110
111110011100
111100111101
111100010001
111100100000
111101001000
000001001101
000010000010
000010001100
000000000100
111100000110
000001100000
000011111101
111100100000
000010010111
000010101110
111111110010
000010001100
111101001011
111101111111
000010111100
111101110110
111101100100
000000011001
111110011000
000001000110
111111100011
111101010010
111101101001
000001110010
000010011000
111111010011
111110001101
111110101100
111110011101
000000100100
000000000101
111100000101
111100111101
000001100010
000010100001
111100010100
000000100110
111100010010
111110010111
000000100001
000000000111
111100110110
111100111011
111110001110
111100011111
111100100111
111111001110
111101011001
000001110001
111110101110
000000000110
111111010111
111111110111
111101010110
000001000000
000011000101
000000010111
111101010101
000011011110
000011110001
000000111100
000011100101
111101101000
111110101100
000000110101
000001100000
000010011010
111101000100
111110101111
111100100111
111101011110
111101010110
000010000110
111101010101
111111101001
111111010000
111111001101
000010011011
111111001111
000011110100
111101001111
111111111110
111100111110
111110111001
111100100001
