111101010000
000000110010
000011010001
000011111001
000000110110
111101010111
000001110100
111100100100
111110100100
111100111001
000001011111
000011000001
111100111110
111111011101
111100100000
111101000111
111111011001
111101101001
111111011000
111111010110
000010011101
000011111111
000011111101
000000111101
111111111010
000001011111
000001101011
111111111001
000001010100
111100010000
111111000011
111101110101
111100100100
111100101101
111111100001
000011110100
111110110011
000011010110
000001111110
000011111111
111110001011
000010110011
000010010110
111100110100
000001111011
000011000010
000011011101
000001110011
000001011011
000000101001
111101100111
111100100101
111100000000
000010001001
000010001010
000011010110
000000001011
111100110100
000000001100
000011011000
000000100101
000001010000
111110000100
111111100011
000001011011
111110101101
111101110001
111101100000
000001111111
000011100010
000011001011
111101001010
111101110000
111100010000
000011100101
111110001011
111110000101
000001010011
000010110000
111101110111
111101001100
000010001111
111110011000
111110000010
111100110111
111101010011
000010101000
000000010101
000011111011
000010111100
111111111110
111111101011
000010000001
111111000100
111111010101
000010111001
000010100100
000001000001
000011011010
111111100111
000010111101
111111011111
111110100010
000001011010
000011110100
000010111010
111111011110
000000010001
111110110010
000001101000
111110011111
000010101100
111100010100
111101000001
000011010101
000011010010
111111000010
111111010000
111100110011
111100010111
111101010000
000010110010
111101000001
111101100000
111100101110
111111001101
111111000100
000011010111
