000011100110
111100100001
111110101101
000011000001
111111111100
111100110000
111100111011
000011000001
111100110100
000001000001
000000011100
111110101000
000000010000
000001010110
000000001100
111110110001
111101011010
111100110101
000000001101
111100100110
111100111110
000011000010
111101110001
000011011101
111100010000
111100000101
000011111110
111110000100
000001010101
111100000011
111110001100
111111111110
000010010111
000010100101
111111011010
000001000110
000001111111
000010000110
000000110101
111111110111
000011110010
000011010010
000000001110
111110011100
000010110100
111100010111
000001100000
111111011101
111110010100
111101001100
111100000111
111111100110
111101010101
111111000010
000011101010
000010010110
111110010100
111100100100
000000010111
000010100010
111100110100
000000101101
000000010111
111110000000
111100011110
000011000100
111101100100
111110000101
111111100010
000011011000
111110011001
000010111000
111110110100
111101111001
000000000001
000010100111
111111000101
111101110001
111101110010
111101110100
000011111100
000001111111
000001000100
111110100001
000011010011
111100011110
000001001010
000000100010
000011011000
000000100100
111110011101
000010001000
000010111001
111110011001
000011011100
111110010101
111101010000
111101011100
111111100100
000010101110
000000110011
111101111011
111100001000
000011011111
111111010010
000011001000
111110011011
111100000101
111100100001
000001110100
000010010111
000001100111
111101100000
111101101100
000000010011
111100110111
111111011101
000011111110
000011111010
111100010111
111101111000
111110000100
111100101000
000011110001
111101011001
000001101101
000000000100
111101111110
