000010101111
000011111110
111111011100
111110100100
000011010000
111101100010
000000111011
111111010000
111100010101
111110110010
111110001000
000001011111
000011100110
111110001001
000010011111
111100011100
000000010100
111100100100
000011011110
000010001000
000001010001
000010100110
000001001100
000011110000
000001101110
000011011001
000000001001
111100111100
000000001110
111101000001
000000101111
111111110111
000000111111
111100000101
111101100100
111111111100
000011100111
111111000100
111111011001
000001101110
000000110101
111110011001
111111010010
111101101111
000011101111
111101000011
111110111110
111100001101
111101110010
000010010000
