000000001101
000010011011
111101100000
111101011111
000001111110
000001101000
111101011001
000011010000
111110101000
000010111101
000010011111
111111100000
111110001110
111101010010
000011101110
000011000001
111111001100
111101011101
000011100110
111110011000
000000100011
111100111001
000011000001
000000000100
000001011100
111111110110
000001110111
000011010001
111100111111
111111010000
000011001100
111100110001
000001010011
000011011100
000001100100
111111110100
000010001010
111101010100
000000110000
111110111001
000011001101
111110000100
000000111011
111101000001
111110010000
000001101000
111111001010
000000011110
111100010100
111100010100
111111110100
111110010000
111110001010
000001001110
000011110011
111101111100
111100000110
000010000100
000010110010
000000100000
111111001111
000011101110
111100000111
111100110110
111100000001
000000011111
111100000011
111110001010
000001001111
000001010110
111111000101
000001010110
000010110001
111101010010
111100101000
111111011110
000010100110
000001011010
111110110001
111100010101
000011001011
000011110101
111111010000
111100110001
111111111111
111100011111
111100010101
111111100010
111100001100
111101010001
000011001011
111101110001
000011000000
000010101101
000011111110
111100110010
000010100100
111101001100
111110111111
000001101110
111110100101
111110101100
111111110111
111101000011
000001111100
111111110000
000011101011
111110111110
111110100010
000010110111
000010001001
000001110011
111101111101
000010101011
111110011100
111100100010
000000101001
111101110111
000001010101
111100101101
000000011000
111110101011
000011111010
000011111001
111110111100
111100110010
000000101000
111101010100
