111110000100
000010001011
111110010010
111110101110
111100001000
111101000001
111111001100
111110101110
000010100000
111111101101
000000111100
000011001011
111100111101
111100111011
111101110111
111100001001
111101001100
000001010110
111101101010
111110111001
000011000110
111101110110
111110001001
111100010111
000010000110
000010011010
000001111100
111110101101
000010111100
000000110101
000011101101
000001110011
111100101110
111110111100
111111010101
111100010101
000011100011
000000011100
000010010100
000010000001
000010111000
111110010011
111111110001
111100111001
000010110110
111100000011
000011100010
000011001000
111111100010
000000000110
111100101101
111101001001
111100011001
000011101101
000000111111
111111100000
000000100111
111101001110
000010000101
111101000011
000001111010
111101100001
111110001010
111110110101
000001100111
000011110000
111111110011
000011001101
000011110110
000001010001
000010111011
111111111011
000010000101
111110110001
111100000100
111100010001
111101010011
000001110111
111100110011
111111111100
111111010011
111110101010
000011010110
000000111101
111111010011
111111001011
000000101101
000011100100
111111010010
000001111000
111111001101
111111011011
000001101001
111111100010
111101110111
111110011001
111101011100
111111000110
000010010110
111100100011
000000111111
111100010111
111111010000
111101101001
000001101111
000010001101
000011101100
000001110000
111100100101
111111110011
000001000001
111110111000
000000110001
000010000010
111101010100
000000000001
000010111111
111111101110
000011101110
111100100101
000001100111
111101101001
000010010001
000001100010
000010000100
000010111100
111111010110
000011111011
