000011101110
111110011111
000011100011
111110000100
111101100100
000000101000
111100011000
000001111000
111100101011
000000101011
000010001010
000001000100
111100110111
000011011100
111110111000
111101011101
111111111111
000010011010
111101011000
000001110101
111100100111
000011100100
000001011110
111100110100
000001001110
111110100111
000011110011
000001010000
111101001000
111110100110
111111010100
000011111010
000011011011
111101000100
111101000011
000001010010
000010100000
111101010010
000001011010
111101000100
000000111000
000000010100
000001110000
000001001110
000001010110
111101001000
111100111011
111110100011
000011101100
111111101101
000001111010
000000101100
000001101101
111110101101
000011100011
000010110101
111111001100
111100100011
000001101011
000000011000
111110001110
000001100111
111101100111
000000001000
111111001000
111111101111
000011001000
111100010001
000001101010
000000101011
111101110111
111111010000
111100110000
000001011011
111101111110
000010011010
111111101011
000011000110
111110011101
000010100010
111101010000
111101110000
000000110000
111101000100
111100001011
000000011011
111111000011
000011000010
111100100101
111101101100
000000011100
000001100010
111101000110
000010001101
111111011100
111111010110
000000011000
111100111000
111111111010
000000011010
111101010101
111101100100
000011101101
000010000001
000000000010
111111101100
000011101111
000001001100
000000110001
000001100011
111101010100
111111101011
111101011110
111101001010
000001011011
111100001001
000010011000
111111110110
111111000111
111101001001
000001000111
111101111101
111100001001
111100001011
111111000010
111101101010
111101111100
111111101011
