111110011100
000001110110
000000001010
000010100010
111110010000
111111101110
000010110110
111110010000
111100100101
111100010111
000010110011
111100100111
000000010001
000000100101
111111001001
000000101011
000011010100
000001001110
111100001001
000001100000
111110101110
000000111010
000010110100
000001100000
000010111011
111100101101
111101100110
000010001100
111110011110
111111001011
111101011101
000001100100
111111001100
000011011000
111111100110
000001000110
111101000010
111100000101
111110001010
000001110101
111100111010
111100110110
111100101001
000010111110
000011001001
000011110001
111111101010
111110111110
111111000101
111111111000
000001111011
111100100101
000011101111
111101000000
000011111100
000011101100
000011111101
000000000100
000010010000
111100011010
111111011101
111111010001
000001111100
111110110111
111101110000
111111000111
000011010001
111101111101
111101110101
111110110110
111110000011
111111101000
000011010111
000011011100
000001010011
000000100111
000011011101
000011010101
111111010110
111100110001
000011110100
111101000011
000001110101
111101000010
111100011101
000010111110
000000110011
000011101011
111110110011
111100001101
111111011010
111111001010
111110101000
111101000111
000000000110
000011000000
111111000001
111110110000
000011010010
000001110101
000000111100
000010001010
000000110101
000001011010
000001100010
000011111000
111110101011
111111100100
111101101100
111101110011
111101001011
111111011011
000000101101
000000000000
000001000010
111110001010
000011000110
000000100010
000001011111
000000100010
000001101101
000010000101
111111010010
000010010011
000001001010
000010111100
111101010110
000000011101
