111101011101
111110010000
000001000100
111100101110
000001101101
000011000001
000010101100
000011100010
000001000100
000011101101
111100010111
111110110100
000010111111
111100110100
111110110011
111100010001
000010111101
111111001101
000000011011
111110010100
000001101001
111111011000
000000110000
111101010010
000001100011
111100000110
111111101000
000001110111
000000010000
000100000000
111101100100
000010100101
111110101010
000011111100
111100011110
111101001101
111100101010
000011111000
111111100110
000000100101
000000010001
111100011011
000001001111
111111110001
000001110100
000000110111
000011111100
000000101000
000000000011
000000111110
000001000001
111111001110
111110100010
000000110111
111100000001
111101000101
000000100001
111111100000
111101110011
000010110111
000000111110
000001001100
111101100110
111100011101
111101110110
000010010110
111101101111
000011100001
000010010001
111101011100
000010110101
111111101011
111110111100
000000011010
000011111011
111111111100
111110000001
111100110110
000011101110
111100000110
000001001000
000010111011
000000110100
000000110111
000001000111
000001010010
000011110001
111101110100
111111010010
000001011010
000000011010
111101110110
111101111111
000010101001
000000000111
000000010100
000010001010
111110100001
111101010101
111111110111
111101100101
000001111001
111110010010
111101001100
111111001010
000011110010
000000000101
000000001000
111100011001
111110001001
111100110110
000011011101
111111011000
000000111101
000001011011
000011000000
111100100100
000001110000
000000001001
111111111000
111111101001
111101111010
111110001010
111110000010
000010001100
000010101111
111110001110
111111101001
