000010101010
000010101000
000011011100
000001000100
000001001110
111101001000
111100001101
111111101011
000011100111
000001111110
000011011110
111101000110
000001000001
000000110110
111111110001
111101111111
111101000000
000000001100
000001000000
111101111110
000011100011
000010001001
111101110011
111110101100
111101010100
111110011111
000000011000
000000111111
111110001010
111100110111
000011101001
000010010000
000000010001
000011010111
000010010000
111100110010
111110001000
111101011011
000011111110
000010101110
000011010000
000010011101
111101011110
111110110100
111100001001
000011001001
111111111101
111110010111
111111111001
000000111111
111111100110
111100011010
111101111110
111101101110
111110110010
000001000011
000001010101
000011100111
000001110101
111110101100
111110011101
000000110011
000001101110
111110011010
111101011100
111111010111
000001101011
000001100010
111100001011
000001000110
000011110011
111100011101
111111000000
111100011010
000001101010
000000010000
111101110100
111110111111
111100000011
111100001111
000001100101
000010001000
111100100100
000000011001
000000010111
111111010100
111101000000
000010000111
000001010111
000011111110
111100101111
000011000010
111111111001
111111101100
111110000011
000010000010
111100000111
111100100011
000000010010
111110010101
000000010010
000000000001
000000110100
111110100111
111110100111
000000011110
000011011011
000000010110
000001111001
111100100011
000010111100
111110000111
000010100100
000010100000
111111101000
000011100010
000010100100
111100000100
000001101100
111111010000
000011110101
111111111100
000011011001
111101111111
111111001101
111101010000
000001010111
111101111011
