000000001010
111111011011
000000000001
000011001011
000011101111
111101101111
111100010111
111111011100
000010000010
111100101000
000001011000
111101011000
000001011100
000000101010
000000010110
000000100001
000011111110
000011001011
000011001101
111101000110
111100001100
111101011111
000001010001
000011110000
111100010001
111100110110
111110111110
111101111111
000010101101
111111101101
000000011010
111100101001
000010100111
111101000101
111110000101
111100100101
111101100101
111101100000
111101001011
111100100011
000001101010
000001000101
111110110111
000010111011
000010101010
111100010011
111110111001
111100001101
111101100100
000010111011
111111010001
111111111110
000000000000
111110100000
111101001011
000000111111
111110000001
111110010001
000000000101
111110011111
111110110001
111100110100
000001010101
000011000001
111111010011
111100100110
111101101000
000010110001
000001101110
000011000110
111111111000
000000011011
111111011100
000001010110
111111010011
111100110101
000000100000
000010101010
000000110100
111111001010
000000100001
111100101010
111111001110
111110010010
111100111110
111101001110
000000011100
111100101000
000010011001
111101000100
000001001100
111101110111
111110000001
000000000100
111100010100
000010010001
111101001000
111110011001
000001111100
111110101000
000000001111
111110000110
000011001100
111100100001
000010111011
000000110110
111110000100
111111101010
000000111110
000011000111
111100011001
000001011101
000001111000
111111010000
000011110110
000011110100
000001111001
111110101100
111100000100
000010001000
000000000011
000010110101
111111111010
000010101111
000010011000
111100101011
000011110110
111110101001
