000011110001
111110001011
111101010011
000001000100
000001100010
000011111011
111100101000
000001001001
000011100110
000001001100
111111010110
111101101101
000010011001
000011111001
000000110001
111110100000
000010101110
111111101000
111110001001
000000110101
000011111010
000011111000
111101110011
111101000010
111111100111
000010011000
000011001010
111101101100
111100111001
000001001101
000001110000
111101111001
000001001101
000000001000
111100011111
000010110000
000010000111
000001010000
000011000001
111111010010
111100100000
000000000110
111101100111
000000111110
000010011100
000000110100
000011000000
111111011000
111101001000
000011000011
000011000100
000001101010
111100000010
000011000011
000000001001
111100000100
000001001000
111110010001
111100000001
111110110001
111110010011
111100101111
111101111100
111100001011
000001011001
000000000100
000001010000
111110001011
111101000011
111101010000
111100100010
000010100101
111101001001
000000000001
000001101111
000001111000
111111101010
000000111001
111110001011
111111001001
111111001001
111101101100
000000000000
111100101100
000000101100
000011000100
000011100010
000000110101
111100000010
000000001010
111111110001
111110010011
111100100000
000000110101
111111101011
000011111001
000010110101
000010011110
000000011100
111101101000
000001101010
000011011000
000010111011
111100010101
111101110000
000010100111
000000111011
111101110100
111110001100
111101111100
000011011011
000011111111
000001010111
111100110110
000011110000
000011011111
000011111001
000000001001
000011011010
000011100101
000010100011
111110101011
111111000001
111110011010
111100111111
000010110100
000000001100
111111101110
