111100111110
111100111101
000011101101
111100110000
000011100010
111100010000
111111111100
000011111011
111100101011
111111101001
000011101000
111101000111
111100001010
111110100110
111111101101
111101001111
111100000111
000001110010
111110001100
000010011001
000000010100
000011100011
000010100110
111100100010
000010111101
111111001011
111110000100
111101111001
000011110001
111101111010
000001101011
000001100011
000000010100
111101011010
000010101000
111101001101
111110111111
111100110011
111100011110
000010001000
000010110100
000010001101
000010100011
111110000101
000010010111
000000111001
000010000001
111111000000
000000011100
111110010010
000001010001
000010100101
111110011001
000000010000
111110111011
000001101100
111111001001
111110101010
111110001000
111101011100
111101011100
111111100111
111110111110
111110011110
111111010101
111100100010
000011000111
111110100101
111110101111
111100101011
111101101100
000011100111
111101111010
000010100111
000011001111
111101101110
000000010000
000010000001
000010000100
111100101011
000010111011
000001111000
111110101111
000010000010
000001011010
000000010101
111111100011
111101011111
000011000000
111110000110
111101011000
000000100110
000011100100
111110111101
000001110000
111100110111
000011101001
111110100010
111110101111
000011110011
000010000110
111100010011
000000100111
111110101010
000011110101
111110010000
000010011111
111101000111
111111101100
111101010000
111100110111
111110100000
000000100101
111101110111
000011001000
111110001000
111111010110
000001110000
111111010010
111100000111
000000110000
111111010110
111111101111
000001100101
000011010111
111101001001
111101111111
111100101101
