111110111100
000010100010
111100111000
111101110100
111110111100
000011010100
111110001111
000001011110
111111111101
000011001000
000010101111
000000111111
111111111000
000000001101
000001111011
111111001011
111111001100
111111010001
000010011010
111101101110
000011110001
111100001001
000010011110
111110000101
000011100011
111100010100
111101110000
111111111100
111101001100
111111001111
111100110100
000010111010
000011101010
000010011101
111100110100
000011101001
000010001101
000010101110
111110110110
000000001001
111100011011
000011000001
111111010110
000010110110
111101111100
000001001110
111110011110
111111011100
111111101011
000001110010
111110111000
111111110100
000011010010
111101100110
111111101010
111111101011
111101110010
111111010111
111101011101
000001111000
111110101010
111110001011
111111101011
111101010010
111100001010
000000010010
000000101011
000001010011
111100010100
000001100110
111100110100
000011111011
000011000000
111100111001
111101011111
000001110111
111110101000
000010101000
111110001000
000001101011
000010100111
000000110101
000011001101
000000010000
000010011111
111111110100
111111110110
111111001100
000001110101
111110110110
000000110010
000010000100
000001100001
111100111010
111111010110
000010100011
111111001001
111101111010
000011000011
000001101010
000001110000
111100101100
111111111001
111100010010
111110110110
000010001111
000011111111
000010010000
111111010010
000001100111
111111101011
000001001011
000010000101
111110100001
111101001000
000001110000
000001110111
000010101001
000001001100
000010110011
111100110011
111111101100
000100000000
000010101100
111110111100
000000011001
111110111000
000011010011
