111101011110
000000010110
000010111110
000010101100
111101111001
000001111011
000001100100
111111000110
111111100110
111111000000
111100001101
000000101110
000011010111
111101001110
000011011100
000000100100
000000001010
000000011111
111111011111
111110110110
000011011010
000001111010
000000101001
000010100011
111101110001
111100100101
000001001010
111101000011
000011100000
111100011001
111100000100
111111011001
000001010111
000010110100
000011111101
111110100110
000011110000
000011100000
000001110010
000000101101
111111010010
000010010011
111101001110
000011110101
111110011100
000001000011
111101000011
111100010110
000011101110
111101100111
000011011010
111110010111
111100110100
111110010111
111110011001
000011101010
000010001011
000000101001
000001010011
000001100111
111110101011
111110001001
000011000001
111111111011
111100111100
111100100011
000001010011
000001000110
000000100010
000001101001
000011100000
000001110011
111100101101
111111100000
111110100000
111110011010
000000101000
111110110110
111111001010
000010010011
111110000101
111100110101
111110101111
111111000111
000010100100
111111100010
111101011011
000001010101
111111111011
111111001011
111111010001
000011001011
111110100010
000001101011
111110100100
000011111100
000011011111
000001000101
000011010101
111101101111
111101101100
111100010011
000001000011
000011111000
000000110111
000000000110
111111101000
000011111011
111111000110
000000000011
000010001101
111100001101
000010101101
000010010000
111110011010
000001111010
111100011101
111111100011
111100101011
000011001100
000010000010
000010010111
000001101000
111111111010
000010011011
000000000000
000011011110
000000101010
