111101010111
000000111111
111101110010
111100111010
000000000001
111110101101
000010000100
000001100101
000010000110
000001100100
000100000000
000011110110
000011001010
111110000100
000010100001
000000010110
111111101000
000001011000
000010101011
000010001011
000000110001
111100101110
111111111110
111110101111
111101110110
000001101000
000001110000
111111001000
000000001000
111100111110
000000111000
111111001000
111110110010
000011110100
000000111111
000011001110
000000110100
000010111111
000000011111
000010011011
000000100001
111100100001
111100000110
111101101101
111100011001
111110111001
111100011110
000010110111
000010100111
000011000001
000010101000
000011000111
000001101000
000010101100
111111110011
000010110000
000001010011
000010110110
000001010010
111101111000
111111010110
000011000100
000010100101
111110010100
000000110111
111101011110
000001111100
111111011101
000011111011
000000100101
000010011001
000010101101
111101001110
111101000000
000011110000
111110100111
000010011110
000001110111
111101011101
000010011100
111110001011
111101110111
111101110000
000001011000
000000011101
000001111000
111101000100
111100100100
000000011000
111111110010
111101100110
111110011011
111110100000
111101111111
111100100011
111101100000
000001111011
111111110000
111110101111
111101111100
000000010001
111100110110
000000001000
000010101001
111111010111
111111111000
111110100010
000000000010
111100101101
111110010110
111101000100
111110111001
000000101010
111111111101
111110110101
111111001111
111111110011
000001000001
111110101001
111100001001
111110110110
000011101110
000010000011
111101101100
000011010011
000000100000
000001101111
000000001111
