000010010010
000001110101
111111011011
111101011001
111101111101
000000000001
000001111010
111110100011
000000011001
000011111100
111111110000
000011100110
111110111101
000011110111
000010101111
111101001101
000011010111
111101010000
111100001100
111110000110
111111110011
111111011011
000000011010
000000010100
000001000111
111100110110
111110101100
000010111110
000011101110
000001010110
111110000011
111100110001
000001100001
111110011100
111100100000
111110100001
000000010000
000000010110
111100110000
000011100010
111110000101
000010111110
000001010110
000010101101
111111110000
000000110100
000011101001
111110001101
000011001101
000010111101
111110001111
000001001000
000011101110
111110010011
111110011011
111111011110
000010110010
111111110100
000011001110
111100001101
111110111111
000010111011
000000110111
111101011111
000011001000
000010100101
000010000001
000010001110
000000111101
000010011011
111101001011
111110111110
111110000111
111110010000
000011011011
000011011101
111100101011
111111010111
111100001101
000011001111
000010100110
000000100111
000001011010
000011111110
000001110110
000000101010
000011100111
111111110111
111111001001
111111111000
111111011100
111110100000
000001011101
000011000110
111100000000
000010101000
111101010010
000001001001
111110000100
111111100101
000000001110
000000001001
000000111001
000010100010
111100011101
111101110100
000000101000
000010010111
000000100111
111111010010
111100010010
111101000010
000010110000
111100010001
000001001001
111111000000
111110111001
111110000100
000001101111
000011101000
111110000111
111100010010
000010010011
000000001110
000001000010
000001001110
111101100011
111100010100
