000010011110
111110100110
111110100101
000001010010
000001110010
111100010010
111100010101
000010011011
000001100111
000011001101
000011100100
111101111011
111111100101
000000011101
000011000001
000011010001
111111010110
111101011011
111110001011
111111111110
000001100100
111111101111
111100100111
000011100000
111110111101
000000001001
000001001101
111110100110
111100001111
111110111100
111100111110
111101000110
111101111000
000010111001
000011000110
000011001010
000001010000
111111101100
000010011100
111100101001
111110110011
111111111111
000011001000
000011100000
000000110000
111110001110
111111000101
000000101010
111111000111
000011110110
000010101011
000001000000
000001010101
111100001010
000010010010
111101111100
000011010111
000011100010
111101010110
000011101111
111110001101
000001011100
000000111100
000000010010
111101111000
111100100111
000010000000
000011000010
111111000111
000000110000
111101000010
111110101000
111111111001
000000100010
111111110001
111100110101
111110011011
000011011110
000000011000
000011011100
000011111010
111100011111
111100001000
000001000100
111110100010
000000110001
111100011100
000000011110
111110010000
000001111100
000000101101
000011101110
000011101000
111111001001
111100111101
111111000001
111100101101
000011000100
111110110100
111101001110
111111000010
000000000011
111111000001
000011100010
111100000100
000001101011
000011100100
000000000110
000001111011
000011111010
111100110101
111100011100
111100011101
000010000101
000001011110
000011010010
000000110001
111111111001
000001110111
111100000111
111101111001
111111101010
111100110100
000010011011
000010110000
000000100011
000001111101
000001000010
