111101011111
111100110111
111110001111
000010001111
000010110101
111100101100
000001000000
000010000010
111100101011
000011111001
000010001011
111100010101
111111111111
111111110110
000001000000
000011011000
000000110001
111100101100
000000110010
111111100100
111100001011
111110110011
000010111100
111101000011
000000111100
000001101010
111100010101
000001101010
000001011110
000010111010
000001000100
000011001010
000001101011
000000011001
111101000110
111100000110
000001001011
000010010001
111111011110
111110010000
111100101010
111111001011
000010101000
111111000011
111100111011
111110101101
111100000101
000001000110
111110101111
111111010001
111100100010
111101000101
111111101010
000010001100
000001000110
111101100001
111110111000
111100010011
000011011110
000010111110
111110000111
111111011110
111111101001
111111001001
000001000011
000010011100
111101111100
000000100111
111100011011
000001111010
000000100000
000001010011
000100000000
111110001000
000011000101
000000100011
111100100011
000010110000
111101111000
111101010011
111101100111
111100001110
000010001111
000000111100
000011110000
000000110001
000001000011
111101000001
000001110110
111111010111
000010011001
111110001010
111101010110
000011110111
000010011011
000001000101
111100111000
000011010010
000010110001
000000110010
000000001010
111100010100
111101000011
111110010001
111111110011
111100001110
000001100011
000010111100
111101000000
000001000011
111101000101
000001101110
000000101001
111110010110
000001100000
111101010100
000000000011
000000010001
000010100111
111101001100
000011011111
000011000000
000011100100
111100100101
111100101100
111110011111
000001101011
000010110111
