111111111110
000001101101
111110000001
000011001011
000011101000
111100010011
111111110010
111111010011
000011111001
000000111110
000000110110
000001001000
111110100101
111111011010
111110011010
000000101100
000001010100
000010110110
000000011100
000001100100
000010010101
000001001101
111110110010
000000101010
000010001110
111101000100
111111101101
111100100110
111100110000
111110111111
111100110111
000011111100
000010101111
000000000001
000001111000
000001111010
111111011101
111111001110
111110101011
111101010001
000000011111
000011101110
000000010101
000011010000
111100010010
111110010000
111100100100
111101010101
000000010101
111101101000
000010001000
000010011100
111100110110
000000110001
111101110011
000011110110
000010000010
000001100011
000000110100
000010011010
000011110001
000011101010
000011010111
000011010100
111111011100
000011000001
000000101000
000011001100
000000001110
000000110111
000010011110
111101011010
000011010001
000000001101
000010100011
111100100010
111100010001
000000010000
000011001100
111101101100
111110010100
111110101111
111101000101
000010111111
111111001011
111100101001
111100011001
000000010101
000010101001
000001100100
000000001001
111101101010
111110100000
111110110111
111100111001
000011101000
000011101000
111100011101
111111011110
000000100110
000000101111
111100011011
111101000001
000001100111
111111010111
111101011110
000011100110
000000100011
111101101111
000010000001
000001001101
000000001101
000010100100
111101010000
000000100100
000001010011
111101001010
000000101100
111101111000
000000010110
111101000001
000010001101
111110111001
000001001001
111100110001
111111000111
000001001010
111111010100
