000000101111
111110111000
111100000100
000011100000
000011001001
000001100111
111111010111
000010100001
111110110100
000011110000
111100011101
111111111100
111100010011
000011110000
111101100111
000001110001
000001111010
111100001110
000001000100
111111111110
111110100011
111101110000
111110111111
000010000110
000011111000
111101001001
000001010001
111110111000
000001000111
000010011000
000010011011
000000110111
111100110001
111101011001
000010100001
111110000010
000010011001
111110011000
000001001001
000010111111
111110000011
000011111000
000011000100
000001100011
111110011000
000001000101
000001000110
111111100101
111110100001
111101000000
111100000101
111110110111
111111111101
111100111001
111101111110
111111100100
111111011011
000000101111
000010000010
000001101000
000001011000
111101001111
000011100111
000010100001
111100110110
111110101011
111101001000
111100101101
000010111011
111111111010
000011101111
000001111100
000010010110
000010011010
111101010011
000001010000
000010101111
000000011101
000001100000
111100011010
000001111010
000010001010
111110010111
111110100111
111111101111
111101000001
111100101100
111101001010
111101011100
000000110000
000000100101
000011110100
000001001011
000001011100
000001111100
111101111011
111110011111
111110111010
000001111101
111100000000
000001110100
111111111000
111110110000
000000010100
111101001110
000011100001
111111100001
000010011111
000001011101
000010001000
111111011111
000011010011
000000011000
000001101101
111101010101
000010100101
111110111001
111111100101
000000111011
000000010011
000001110001
000000011010
111101001101
111101100101
000010010000
000010110000
111111101111
000011110000
