111100110010
000001000110
000001101000
000000011100
111100001100
000000010110
000001101000
111101011011
000010100101
111110010000
111101111111
111101000010
111101111100
111110001111
000010100010
111111001101
111110111010
111101111010
000011010100
111111011111
000001110011
111101010110
111111111110
111100100011
111111110010
111110110100
000001011100
111101000011
000001101001
000001100100
000001011101
111111001111
111101001110
111111111001
111101100100
000000111010
111110101101
111101111110
000010100110
111111111110
111101001101
000001010000
000001110111
000010001000
111101011111
111110101010
111110111101
000000110100
111110101110
000010111010
111101001001
000001011110
000010000110
111111010100
000000010111
111101100101
111100010111
111111010010
000000101011
000000000010
000011110110
111100001000
000001111010
111110110101
000011101011
000010011011
000010000100
000000011101
000000110010
111100011011
111110110110
000010000110
111100010101
111111000110
000010000001
111111101110
111100111101
000001000101
111101010010
111111100110
000010010110
000000110110
111110100110
000000101000
000010001000
000000100111
000011001110
111100011001
000010010001
111110110110
000000111011
111101000011
000001010011
111100000101
111110110011
000011010000
111111010100
000001011110
000000100011
000000110011
000011110001
111100100000
111100101001
111110111010
000001010011
111100011010
000000100100
000011101111
000010101111
000001010011
000011000001
111111110000
000010101110
000011010011
111110001000
000010100100
111111010010
000011010101
111101101101
000011011101
000010111111
111101101001
000011011110
111110011000
000001001101
111111011101
111101100001
000001111100
