111101100111
111100101001
111111110011
111100000101
111100101011
000010011110
000010001011
000011010101
000010110110
000001011110
111100011011
000010010001
000010110001
000010011001
000000000100
111101110111
000010110001
000001110100
000011110110
111101010000
111101110100
111101101100
000010010110
111101100000
111100100010
000011111111
111100001101
000010101100
111110111011
000010101111
000000011100
000011001110
000011011010
111100000101
111100100111
111110000000
000001010111
000011000111
111111101011
000000110111
111101100001
000010011100
000011101111
111110001010
111111111101
111100101100
000000011110
000000000001
111101001010
111111100010
