000010111011
111101100100
000010000011
000010000110
000001010100
000001100100
111110100101
000000101100
111100000110
111111110000
000010100101
111100001111
111110111011
111110111010
000010011111
000000010001
000011011010
111111110010
111110101111
111100011000
000010110011
111111001110
000010000100
000011000011
111111100100
111111111100
000010011010
111111011000
000010011101
000001011010
000000010001
111111010010
000010011010
111110011100
111101101111
111111111010
111101011111
111111101100
111110111100
111111011000
000010001110
111111010011
000011010000
111110110010
000010110111
111111011100
000000111100
111100100010
111101110000
000001000001
111111100001
111110011001
111110001101
000010110011
111110001000
000011001000
111101010011
111100010100
111101110100
000010111001
111100000110
111100100111
111100000101
111100100001
000001111111
111101101010
111100100011
111111000100
000011111111
000001100010
111111101110
111111111010
111110010010
000000000101
111110001110
111110101111
111110110010
000000011010
111110011110
111111010111
111111010001
111100010101
111100011010
000010110100
000000010101
111111100111
000001000011
000001000000
111101001001
111101001000
111100001100
000001011100
111101011110
000000011001
111101100100
000010001110
000011101001
000011100000
111101101001
000001000101
000010110010
111110001110
111100110011
000010000011
111111011110
000000011001
111111000111
000011110100
111111100011
111111001000
111110100101
000001111001
000011001000
000010111000
111100110101
111111011100
000011110110
111100000100
000010001110
111110111101
111100100101
111111111011
111100101010
000001110010
111110101101
000001010100
111110111100
111111101011
