000000110100
111100010111
111101110101
111101111010
111100000011
000000100100
000010010111
000011100001
000011010000
111100011101
000011100110
000010000011
000000000010
000001001011
111110000010
000011001010
111111100111
000000100001
111110000101
111101010101
111110000000
111111110110
000001100100
000010111110
111110001100
111100100001
111110101110
111110001110
000000101100
111101101110
000000110111
000010101110
111101111000
111111001011
000000111101
111100111000
111101011001
000010101111
111110100111
000001000110
111100100001
000001001101
111110001110
111111100111
111110010110
111110100010
111100111010
000000010001
000011111010
111111111010
000010110010
111100100111
000001101010
111101101101
111100001001
000001101010
111111110100
111100010010
111110011100
111110001100
000001011001
111100100111
000000101110
000010100110
111111100001
111111001001
111110111101
000010100101
111101111100
000001100101
000010110010
111100101010
000011011011
000000111011
111110010000
111111011100
111100011010
111111001110
000000100101
111100011010
000001011100
000011001000
000011001000
000011101010
111100101100
111110110110
000010101000
000000100101
111111000100
111111010101
000000101011
000011011101
000011101010
111101100001
000010100100
111111101100
111101111110
000011010110
000001111100
111101011111
111101011101
000000011110
000010001000
111111110011
000010111101
111111010110
000011000110
000010110101
111110100100
000011110100
111110000100
111110001101
111111100110
000011101101
000001010000
111111100000
000001000010
111100001010
111101110001
000010001010
000001000001
000010110010
111101100100
111101000110
111111001110
000010101100
000000001101
000011100100
