111110010101
000011111001
000000010100
000000101111
000010110011
111110010110
111110000000
111100100100
000010000001
000011101101
111101001101
111110110010
000001111111
111110010010
000001110110
000010100100
111110101100
000011100100
111101001000
111111110100
111100010001
111110010011
111101000010
111110010011
111110001100
111110010101
111100011111
111101111010
000011011110
000010010001
000011011011
111111100111
000001110110
000010100011
111101111010
111111001010
111111000100
000001110100
111111010011
111100001101
000001010100
111110101001
000011000100
111110100110
111100111010
000000000110
111111010010
000001110101
111111000111
000000010110
000001110010
000011011100
111110100000
111110100010
111100001100
000001011100
111110110111
111110110101
111110011011
111111111110
000010010001
000001011010
111101101110
111111010010
000001110111
000001100001
000010001100
000001100100
111100000111
111101010111
111101101100
000010111001
111101011010
111111100110
111110000110
111100111100
111111110100
111100100100
000010011100
111111001100
111101110110
000010110010
000001101110
111100110001
111110000001
000011100010
000000001000
111101011110
111101011011
000011000010
111100001100
000010111000
000010111000
000001100101
000011010111
111110110001
111101100110
000010100001
111110101101
111111011011
000010110111
111100000110
111110010000
000010001010
111100011110
111110011100
000000101001
111101010111
111110100100
111110111000
000001001010
000011110011
111101100011
000001111111
111101001010
000011010011
111111111110
000000101101
000000101100
000010100111
111100101110
111101111010
000001011000
111101001001
111101001110
000001000111
111100001111
000010101001
