111100011110
111100101101
111111010010
000001011000
111100110100
000011011111
000000001000
111100001110
111111000111
111100000110
000011010010
111101000101
111101101010
111110010001
111110100101
000000111101
000011011110
111100010011
000010100011
000000001010
000001100010
000010001001
111111001011
111101010001
000001011110
111101100111
000001101110
000011001101
000010110000
000001100001
000000101001
000000111001
111100100011
000000011100
000001001000
000011101011
000001010011
000010000011
000011101011
000001001001
111111100110
111111101101
000010110111
111101001001
111110001111
000000001001
111100101101
000011001110
111110111011
111111100011
000010110101
000000001100
111100011000
000010100101
111100111110
111111110001
000010000100
111101110001
000011110010
000001110101
000011010000
000000110101
000001110010
000011011111
000010111000
000001100010
111110111111
000001100100
000010110111
000000000000
000011110010
111110001100
000010100111
111110101110
000001111010
111101011111
111111011101
111110110110
000000000111
000011011010
111110111001
000010100011
000011101110
000000010101
000000101100
000011111111
111111110100
111101110001
000011100110
000001100010
000001111000
000001010011
000010110001
000010101100
000010010010
111100000101
111100101000
111101001011
000011101111
111110110111
000010001110
111111100000
111110111100
111101011110
000010011011
111100100011
111111110100
111101010111
000011101111
111110111100
000000000010
111100111010
000010111101
000001011010
000011001011
000001000011
111110101111
111101001010
111111100101
111110011110
000000001001
111111110010
111111111100
000001111101
111110000100
000000111101
111111000001
000000010101
