000001010011
111111111101
111100010011
111110110011
000011011011
000000001011
000000111011
000011011101
000011100101
111110110101
111110110111
111111110011
000011001000
000000111001
000011001101
000010111111
111111010100
111101101001
111100000110
111100101111
000000111011
111101011010
000011000010
000010111110
000001000001
111101100110
111111011010
000010101000
111101011011
000001010110
111111111000
000000101000
000010000011
111100100011
111111110110
111100101011
111101111011
000001110111
000000001001
000001010000
000001110010
000010010110
000010100101
111111100101
000000001011
111100000100
000001010110
111110110001
111110011011
111111111100
111111111010
000010001101
111110111000
000000001010
000010010000
000000110000
111110110111
000011000000
111100110100
000010111011
000001101001
000001011000
111110111101
000000000011
111101011000
111100100010
000001101111
000011111110
000001001101
111101101100
111101001111
000001001010
111101001111
111100001111
111101101101
000001010001
000001010000
000010100110
111100001000
111111100010
111111011011
111111101110
000001001101
111101100000
000011011111
111110011000
111110110101
000010101111
000011110101
000000111000
000010100000
000001001010
000001111100
000011000011
111100011100
111110100100
111111001001
111100101001
000011100010
000011001011
000000110100
111111100000
000011000010
000010011001
000000101010
111101000101
000000010011
111110111110
111101100110
111110101011
111100100111
111111110101
111110001100
111110011110
000001100010
000010010111
111101111001
111101111110
111110101111
000001011110
000010000101
000001111100
111101010110
111101010000
000000110111
000011000011
111100100101
111110001110
