000001110111
000011100001
111110100001
111101001010
111101010011
000010110100
000000010101
000001010001
000000000011
111111011001
111110011110
000000011011
111101011011
000000101100
111110101100
000001000001
000000100111
111101101011
111101011101
111101011010
000010111111
000011100001
000011000100
000001100101
111100001011
111100111100
111100011011
111111100001
111100010011
000010111101
111100001101
000010100011
111101110100
111110000111
111110100000
111100000110
111110110101
000010111001
000010000110
000000110010
000011010000
111101010101
111101010001
000001101101
111111011000
000001010111
000000000110
000000111010
111111010010
000000011110
000000100110
000010011110
000001111111
111110111101
111101000000
111110000101
000011100011
111101100010
111100000000
000001101110
111110000000
111110001001
000011010100
000001101001
111101100011
000000110110
000000011110
000011010001
000011111111
000001011011
000011111111
000000101001
111101011111
000010101000
111110100011
111110100001
000010100011
000000111010
000011010101
000011110011
000010000101
000010100110
000000011001
000001101101
111101000000
111110101110
000010000011
111111010100
111101111110
000010101010
111110010100
111101001111
000011010010
111111110011
000001010100
000001011010
000011010010
000010001101
111100111111
111111001110
000010110110
111101011111
000000100100
000011010001
000001001001
000001100101
000010000110
111110010011
000011101011
111101101101
111101110111
000011100011
111101000000
111101101001
000000100001
111100110111
111110001011
000010110100
111101000010
000010010101
000010111111
000000010010
111110100011
111100011010
000011010111
111110101101
111111111000
111100010011
