000000011000
111100001101
111100011010
000011000110
000011101101
000000111111
111111000000
000010000000
111111000001
000011110011
000000001010
111101100010
000010010100
111101001111
000011010000
000001100101
000000000001
111100000111
000010111111
000011100111
000010111101
000010001111
000010110011
000010000000
000011010111
000001000110
000011111010
000000111100
000011100100
111111000010
111100010110
111100101100
000010010000
000011101101
000010000101
111100100100
000011000110
111110110110
111110101000
111100011101
000000010110
000010011001
111111111101
000000011000
000000110011
111100110111
000000110000
000001001011
111100011110
000011110110
111111010000
111110010010
111111011110
000010001100
000010011111
000011110110
000000100001
111111011010
111110111101
111110010101
111111001100
111100000100
000010010011
111100110101
000010111110
111111000000
111110100001
111101111111
000000110000
111101100101
111110011011
111110111111
000000110010
000011011110
111111001110
111101011000
000001101110
000000010101
111101010011
000000001111
000010110011
111110000100
000001110101
111111100011
000000101011
111111011110
000010100111
111101010111
111110101011
111110000110
000001010110
111111010000
000010111111
111101000111
111111001001
111100111111
000010000111
111100101110
000010011100
000010100010
111110101011
111111011000
000000111111
111111000110
111111101010
111111011011
111111100110
111111001010
000000010111
000000100011
111110000100
000001010011
000001000000
000011111000
000011111001
000011101110
111110100100
000011101000
000001011100
111111111000
000010100001
111101100101
000001000000
111101101011
000001110001
000001110011
000000110001
111111100010
