111101010000
000011011000
111110000000
111101111100
111100000101
000000011101
000011110100
000001001001
000011001011
111111111100
111101010011
111111001111
111111101100
111101000001
000011111011
000010010111
000001111001
111101100010
000011001001
111111000100
000001010001
111110110100
111101011001
000010000001
000010001010
111111011100
000010111110
000010111111
111111110011
000011011101
111111001100
111101101101
000000001010
000011100000
111100110110
000010011010
000010001101
111110000001
111101101000
000011011110
000010000101
000001010111
111110100010
111101111011
000011010110
000000100101
111111001011
111100111110
000000110110
111101000111
111100111000
000011101001
000000000110
111111010101
000010011101
111110010101
000011110100
000000000011
111100011100
000001100100
000010101010
000011110000
111111011110
000001001100
000010101101
111101001001
111110110011
111100100111
000010011101
111101010110
000000111111
000000111111
111101011110
111101101001
000011000101
111101100010
000011110000
111100100111
111111111000
000010111101
111110001001
111100001000
000001010100
111100000111
111111110101
000001010001
111100101001
000000110110
000001011110
111100011111
111110010010
000000100001
000011001011
111101010110
111111011000
000010111011
000000010111
111101100010
111101010011
000001111111
111100101101
000001010001
111100110111
111110011010
111111000001
111111110110
000000010010
111111010000
000011001011
111101101111
111101011101
000001101100
000000110010
111101000010
111110001000
111111000100
111100101101
000010000110
000000111111
000000111111
000011101101
111111111100
111101011011
111100010001
000011100101
000000011010
111111100011
000011110000
