111101101101
111110110111
000010011110
000000010010
111101110011
000000001001
000011101101
000000010111
000000100110
000000101011
000010111011
111100000111
111100101010
111101111001
111111010011
000001111101
000011010111
111111100010
111111010010
111111000111
111100010100
111111010110
000000010011
000001111101
000010010111
111111101001
000010100010
000001000011
111100011101
000001010001
111100001001
111110001101
111110100110
111111111110
111111101011
111111111010
111100001011
000000010111
111110111101
111111000101
111101000111
111111101011
000011001010
000010101111
000011101101
111111100011
000001101000
111111111001
111100001110
000000100100
000000000101
111100100101
000001111011
000001011011
111110111110
111111100101
111101010011
000000101010
000011101111
000011110101
111110110101
000000111111
111100101111
000000000001
000001100011
111100001001
111100000100
111110000111
111110111001
000000110011
000010100010
111111010110
000010011000
111100010010
000000111111
111110010011
000000111010
111110000011
000011110101
000000101011
111101100011
111110000010
111100101110
111111000011
111101111000
111111000110
000011000000
000000001100
000001001001
111101000101
000001000000
111100011001
111100111000
000010101000
000010000001
111101111111
000000000110
111110101011
111101100100
000001111111
000001000101
111110101000
000001100111
111111110000
000010000011
111100011100
000011101101
000001100100
111100011010
111110100010
000001101010
111110001111
111101111101
000000101000
000011100100
111101011001
111110010000
111111011000
111111010110
000010001011
000000000001
000000100101
000000010111
111110111111
111110110100
000011110011
111110001010
111111110001
