111110010110
111100000011
111110100011
000000000110
111100110000
000010111100
000001010010
111100110000
111100101111
111100010110
000011110001
111111001011
111110111110
111100101001
111100100010
111101000001
111110101011
000001001010
000011001010
000001110111
000011011001
111100010110
000010111001
000001000011
111111011101
000010001111
000010111110
000010110101
111100010101
000011000010
111110110100
000001111001
000000100000
000010111100
111110011011
000011001001
000000111011
000000000011
000000111101
111110001100
000011100000
111101101001
000011101111
111101011010
111100110001
111111111010
000000110111
000001100011
000010000011
000011010010
111110011001
111110100101
111111011110
000001101101
000010010000
000010011101
000001000101
000011001001
000010100010
000010010011
000001011111
111110100000
111100100000
111101010010
111100101011
000001110010
000010001000
111110000111
000010000110
000000111000
111110001010
000010101110
111101110000
000001110011
000011011111
111110110000
000010011101
111101010000
000010010001
111110001101
000001011000
000000110000
000001100101
111111100011
000011001100
111101001110
000001011000
111100011010
000000110011
111101101011
000011001000
111101111010
111101001011
000001110011
111101101001
111101111000
111111000001
111101100101
000000110010
000000001101
000011101000
111111111000
111100011101
111100001011
111101010110
111110011001
111111001111
111111011101
000011110011
111100011111
000001001011
000010100101
000010100100
000001001000
000010010111
111110000100
000001101011
000001000010
111101011001
000010011100
000010110110
111101010110
111100000010
111100011100
111101100001
111100100010
000000010111
000011011111
